#ifndef CUTIE_DRONET_ASSETS_H
#define CUTIE_DRONET_ASSETS_H

#include <stdint.h>

/*
 * Auto-generated from vendored DroNet export files:
 *   /mnt/c/Users/kiran/fpga_project/mini_kraken/sw/dronet_v3/assets/tiny_pulp_dronet_v3_dory/inputs.hex
 *   /mnt/c/Users/kiran/fpga_project/mini_kraken/sw/dronet_v3/assets/tiny_pulp_dronet_v3_dory/ConvBNRelu0_weights.hex
 *
 * This is a CUTIE-compatible smoke payload derived from real DroNet assets.
 * It does not yet represent a full end-to-end network export.
 */

#define CUTIE_DRONET_INPUT_BYTES 40000u
#define CUTIE_DRONET_WEIGHT_BYTES 164u

#define CUTIE_DRONET_EXPORT_IMG_W 200u
#define CUTIE_DRONET_EXPORT_IMG_H 200u
#define CUTIE_DRONET_EXPORT_NI 1u
#define CUTIE_DRONET_EXPORT_NO 4u
#define CUTIE_DRONET_EXPORT_STRIDE 2u
#define CUTIE_DRONET_EXPORT_KERNEL 5u

/* Current CUTIE build is fixed-K and uses a reduced control subset. */
#define CUTIE_DRONET_COMPAT_K 3u
#define CUTIE_DRONET_COMPAT_POOL_EN 0u
#define CUTIE_DRONET_COMPAT_POOL_K 1u

/*
 * Current firmware only loads a tiny smoke payload from the exported assets.
 * Use a small geometry that matches the truncated payload so CUTIE can
 * complete in simulation. The original export dimensions above are kept as
 * reference metadata only.
 */
#define CUTIE_DRONET_SMOKE_IMG_W 4u
#define CUTIE_DRONET_SMOKE_IMG_H 4u
#define CUTIE_DRONET_SMOKE_NI 1u
#define CUTIE_DRONET_SMOKE_NO 4u
#define CUTIE_DRONET_SMOKE_STRIDE 1u

#define CUTIE_DRONET_STAGE0_IMG_W CUTIE_DRONET_EXPORT_IMG_W
#define CUTIE_DRONET_STAGE0_IMG_H CUTIE_DRONET_EXPORT_IMG_H
#define CUTIE_DRONET_STAGE0_NI CUTIE_DRONET_EXPORT_NI
#define CUTIE_DRONET_STAGE0_NO CUTIE_DRONET_EXPORT_NO
#define CUTIE_DRONET_STAGE0_STRIDE CUTIE_DRONET_EXPORT_STRIDE
#define CUTIE_DRONET_STAGE0_KERNEL CUTIE_DRONET_EXPORT_KERNEL
#define CUTIE_DRONET_STAGE0_EXPECTED_SIGNATURE 0x99B1E9C1u

#define CUTIE_DRONET_STAGE2_IMG_W 50u
#define CUTIE_DRONET_STAGE2_IMG_H 50u
#define CUTIE_DRONET_STAGE2_NI 4u
#define CUTIE_DRONET_STAGE2_NO 4u
#define CUTIE_DRONET_STAGE2_STRIDE 2u
#define CUTIE_DRONET_STAGE2_KERNEL 3u
#define CUTIE_DRONET_STAGE2_MARKER 0x00320304u

#define CUTIE_DRONET_STAGE3_IMG_W 25u
#define CUTIE_DRONET_STAGE3_IMG_H 25u
#define CUTIE_DRONET_STAGE3_NI 4u
#define CUTIE_DRONET_STAGE3_NO 4u
#define CUTIE_DRONET_STAGE3_STRIDE 1u
#define CUTIE_DRONET_STAGE3_KERNEL 1u
#define CUTIE_DRONET_STAGE3_MARKER 0x00190104u

#define CUTIE_DRONET_STAGE4_IMG_W 25u
#define CUTIE_DRONET_STAGE4_IMG_H 25u
#define CUTIE_DRONET_STAGE4_NI 4u
#define CUTIE_DRONET_STAGE4_NO 4u
#define CUTIE_DRONET_STAGE4_STRIDE 1u
#define CUTIE_DRONET_STAGE4_KERNEL 3u
#define CUTIE_DRONET_STAGE4_MARKER 0x00190304u

#define CUTIE_DRONET_STAGE5_IMG_W 25u
#define CUTIE_DRONET_STAGE5_IMG_H 25u
#define CUTIE_DRONET_STAGE5_NI 4u
#define CUTIE_DRONET_STAGE5_NO 4u
#define CUTIE_DRONET_STAGE5_STRIDE 1u
#define CUTIE_DRONET_STAGE5_KERNEL 1u
#define CUTIE_DRONET_STAGE5_MARKER 0x05190104u

#define CUTIE_DRONET_STAGE6_IMG_W 25u
#define CUTIE_DRONET_STAGE6_IMG_H 25u
#define CUTIE_DRONET_STAGE6_NI 4u
#define CUTIE_DRONET_STAGE6_NO 4u
#define CUTIE_DRONET_STAGE6_STRIDE 2u
#define CUTIE_DRONET_STAGE6_KERNEL 3u
#define CUTIE_DRONET_STAGE6_MARKER 0x06190304u

#define CUTIE_DRONET_STAGE7_IMG_W 13u
#define CUTIE_DRONET_STAGE7_IMG_H 13u
#define CUTIE_DRONET_STAGE7_NI 4u
#define CUTIE_DRONET_STAGE7_NO 8u
#define CUTIE_DRONET_STAGE7_STRIDE 1u
#define CUTIE_DRONET_STAGE7_KERNEL 1u
#define CUTIE_DRONET_STAGE7_MARKER 0x07130108u

#define CUTIE_DRONET_STAGE8_IMG_W 13u
#define CUTIE_DRONET_STAGE8_IMG_H 13u
#define CUTIE_DRONET_STAGE8_NI 8u
#define CUTIE_DRONET_STAGE8_NO 8u
#define CUTIE_DRONET_STAGE8_STRIDE 1u
#define CUTIE_DRONET_STAGE8_KERNEL 3u
#define CUTIE_DRONET_STAGE8_MARKER 0x08130308u

#define CUTIE_DRONET_STAGE9_IMG_W 13u
#define CUTIE_DRONET_STAGE9_IMG_H 13u
#define CUTIE_DRONET_STAGE9_NI 8u
#define CUTIE_DRONET_STAGE9_NO 8u
#define CUTIE_DRONET_STAGE9_STRIDE 1u
#define CUTIE_DRONET_STAGE9_KERNEL 1u
#define CUTIE_DRONET_STAGE9_MARKER 0x09130108u

#define CUTIE_DRONET_STAGE10_IMG_W 13u
#define CUTIE_DRONET_STAGE10_IMG_H 13u
#define CUTIE_DRONET_STAGE10_NI 8u
#define CUTIE_DRONET_STAGE10_NO 8u
#define CUTIE_DRONET_STAGE10_STRIDE 2u
#define CUTIE_DRONET_STAGE10_KERNEL 3u
#define CUTIE_DRONET_STAGE10_MARKER 0x0A070308u

#define CUTIE_DRONET_STAGE11_IMG_W 7u
#define CUTIE_DRONET_STAGE11_IMG_H 7u
#define CUTIE_DRONET_STAGE11_NI 8u
#define CUTIE_DRONET_STAGE11_NO 16u
#define CUTIE_DRONET_STAGE11_STRIDE 1u
#define CUTIE_DRONET_STAGE11_KERNEL 1u
#define CUTIE_DRONET_STAGE11_MARKER 0x0B070110u

#define CUTIE_DRONET_STAGE12_IMG_W 7u
#define CUTIE_DRONET_STAGE12_IMG_H 7u
#define CUTIE_DRONET_STAGE12_NI 16u
#define CUTIE_DRONET_STAGE12_NO 16u
#define CUTIE_DRONET_STAGE12_STRIDE 1u
#define CUTIE_DRONET_STAGE12_KERNEL 3u
#define CUTIE_DRONET_STAGE12_MARKER 0x0C070310u

#define CUTIE_DRONET_STAGE13_IMG_W 7u
#define CUTIE_DRONET_STAGE13_IMG_H 7u
#define CUTIE_DRONET_STAGE13_NI 16u
#define CUTIE_DRONET_STAGE13_NO 16u
#define CUTIE_DRONET_STAGE13_STRIDE 1u
#define CUTIE_DRONET_STAGE13_KERNEL 1u
#define CUTIE_DRONET_STAGE13_MARKER 0x0D070110u

#define CUTIE_DRONET_STAGE14_OUT_DIM 2u
#define CUTIE_DRONET_STAGE14_INPUT_DIM 784u
#define CUTIE_DRONET_STAGE14_MARKER 0x0E010102u
#define CUTIE_DRONET_STAGE14_EXPECT_OUT0 0x00000094u
#define CUTIE_DRONET_STAGE14_EXPECT_OUT1 0x00000a21u
#define CUTIE_DRONET_STAGE14_EXPECT_SIGNATURE 0x000014d6u

#define CUTIE_DRONET_PARTIAL_IMG_W 8u
#define CUTIE_DRONET_PARTIAL_IMG_H 8u
#define CUTIE_DRONET_PARTIAL_NI 1u
#define CUTIE_DRONET_PARTIAL_NO 4u
#define CUTIE_DRONET_PARTIAL_STRIDE 1u

#define CUTIE_DRONET_SMOKE_ACT_WORD_COUNT 8u
#define CUTIE_DRONET_SMOKE_WEIGHT_WORD_COUNT 8u
#define CUTIE_DRONET_STAGE0_ACT_WORD_COUNT 10000u
#define CUTIE_DRONET_STAGE0_WEIGHT_WORD_COUNT 41u
#define CUTIE_DRONET_STAGE2_ACT_WORD_COUNT 2500u
#define CUTIE_DRONET_STAGE2_WEIGHT_WORD_COUNT 25u
#define CUTIE_DRONET_STAGE3_ACT_WORD_COUNT 625u
#define CUTIE_DRONET_STAGE3_WEIGHT_WORD_COUNT 20u
#define CUTIE_DRONET_STAGE4_ACT_WORD_COUNT 625u
#define CUTIE_DRONET_STAGE4_WEIGHT_WORD_COUNT 25u
#define CUTIE_DRONET_STAGE5_ACT_WORD_COUNT 625u
#define CUTIE_DRONET_STAGE5_WEIGHT_WORD_COUNT 20u
#define CUTIE_DRONET_STAGE6_ACT_WORD_COUNT 625u
#define CUTIE_DRONET_STAGE6_WEIGHT_WORD_COUNT 25u
#define CUTIE_DRONET_STAGE7_ACT_WORD_COUNT 169u
#define CUTIE_DRONET_STAGE7_WEIGHT_WORD_COUNT 40u
#define CUTIE_DRONET_STAGE8_ACT_WORD_COUNT 338u
#define CUTIE_DRONET_STAGE8_WEIGHT_WORD_COUNT 50u
#define CUTIE_DRONET_STAGE9_ACT_WORD_COUNT 338u
#define CUTIE_DRONET_STAGE9_WEIGHT_WORD_COUNT 48u
#define CUTIE_DRONET_STAGE10_ACT_WORD_COUNT 338u
#define CUTIE_DRONET_STAGE10_WEIGHT_WORD_COUNT 50u
#define CUTIE_DRONET_STAGE11_ACT_WORD_COUNT 98u
#define CUTIE_DRONET_STAGE11_WEIGHT_WORD_COUNT 96u
#define CUTIE_DRONET_STAGE12_ACT_WORD_COUNT 196u
#define CUTIE_DRONET_STAGE12_WEIGHT_WORD_COUNT 100u
#define CUTIE_DRONET_STAGE13_ACT_WORD_COUNT 196u
#define CUTIE_DRONET_STAGE13_WEIGHT_WORD_COUNT 128u
#define CUTIE_DRONET_STAGE14_ACT_WORD_COUNT 196u
#define CUTIE_DRONET_STAGE14_WEIGHT_WORD_COUNT 392u
#define CUTIE_DRONET_PARTIAL_ACT_WORD_COUNT 32u
#define CUTIE_DRONET_PARTIAL_WEIGHT_WORD_COUNT 41u
#define CUTIE_DRONET_FULL_ACT_WORD_COUNT 10000u
#define CUTIE_DRONET_FULL_WEIGHT_WORD_COUNT 41u

static const uint32_t g_dronet_act_words[8] = {
  0x92009700u,
  0x00990000u,
  0x009700A2u,
  0x00000000u,
  0x000000E8u,
  0x00000000u,
  0x88000066u,
  0x000000D2u
};

static const uint32_t g_dronet_weight_words[8] = {
  0xF2FB0C19u,
  0x010320FBu,
  0x03250706u,
  0x19F5F4FFu,
  0xF2F0FF09u,
  0xF71D2B3Fu,
  0x05010FF8u,
  0xFC0A1E11u
};

static const uint32_t g_dronet_partial_act_words[32] = {
  0x92009700u,
  0x00990000u,
  0x009700A2u,
  0x00000000u,
  0x000000E8u,
  0x00000000u,
  0x88000066u,
  0x000000D2u,
  0x2C00004Du,
  0x9022004Eu,
  0xCD000000u,
  0x53964C00u,
  0x0045A8DFu,
  0x0000007Fu,
  0x00000A00u,
  0x00000091u,
  0x00000000u,
  0x0027002Cu,
  0x00000000u,
  0x7E00DB00u,
  0x3FF70000u,
  0xE1C72239u,
  0x15308400u,
  0x06006E00u,
  0x86000091u,
  0x00008B00u,
  0x75AA0000u,
  0x00000A11u,
  0x000000C0u,
  0xA3000000u,
  0x00E2AC00u,
  0x5D000000u
};

static const uint32_t g_dronet_partial_weight_words[41] = {
  0xF2FB0C19u,
  0x010320FBu,
  0x03250706u,
  0x19F5F4FFu,
  0xF2F0FF09u,
  0xF71D2B3Fu,
  0x05010FF8u,
  0xFC0A1E11u,
  0x11090305u,
  0xFC00FE00u,
  0x0BF4FD03u,
  0xD1C0D301u,
  0xEE0BFAFAu,
  0x0B201DF6u,
  0x0C07F701u,
  0xFAF60008u,
  0xF7E50F06u,
  0x023707F9u,
  0x050F02FCu,
  0xFFF50A07u,
  0xE4FD0CFAu,
  0x010905F7u,
  0xFCF407F4u,
  0xC9F3CEF5u,
  0xEDE20E03u,
  0x000033CCu,
  0x00000000u,
  0x00010FDEu,
  0x00000000u,
  0x0000A4B0u,
  0x00000000u,
  0x00005EB2u,
  0x00000000u,
  0x02578994u,
  0x00000000u,
  0x1B076798u,
  0x00000000u,
  0xF0582BF2u,
  0xFFFFFFFFu,
  0x0EBEBEB8u,
  0x00000000u
};

#ifdef CUTIE_DRONET_INCLUDE_FULL_PAYLOAD
static const uint32_t g_dronet_full_act_words[10000] = {
  0x92009700u,
  0x00990000u,
  0x009700A2u,
  0x00000000u,
  0x000000E8u,
  0x00000000u,
  0x88000066u,
  0x000000D2u,
  0x2C00004Du,
  0x9022004Eu,
  0xCD000000u,
  0x53964C00u,
  0x0045A8DFu,
  0x0000007Fu,
  0x00000A00u,
  0x00000091u,
  0x00000000u,
  0x0027002Cu,
  0x00000000u,
  0x7E00DB00u,
  0x3FF70000u,
  0xE1C72239u,
  0x15308400u,
  0x06006E00u,
  0x86000091u,
  0x00008B00u,
  0x75AA0000u,
  0x00000A11u,
  0x000000C0u,
  0xA3000000u,
  0x00E2AC00u,
  0x5D000000u,
  0xEB00000Eu,
  0xD0009022u,
  0x5FE11A00u,
  0x00008113u,
  0xED9785EAu,
  0x00000ED0u,
  0x2E8D0057u,
  0x00C125D5u,
  0xAD4A60E8u,
  0x9C000000u,
  0x5B000000u,
  0x00000051u,
  0x008500ADu,
  0x6C00D000u,
  0x003BFAB4u,
  0xEDAF0000u,
  0x00364F0Cu,
  0xA0005000u,
  0x00B50000u,
  0x3B0000F9u,
  0x7087001Eu,
  0x00000000u,
  0xDC000044u,
  0x00007000u,
  0x9E00A200u,
  0x00000900u,
  0x0000CB00u,
  0x00000010u,
  0x00009187u,
  0x1B005A00u,
  0xD4B4003Fu,
  0x002200F2u,
  0xDC003500u,
  0x71C79557u,
  0x00C14800u,
  0x00250000u,
  0x00009B00u,
  0x00006943u,
  0x90000000u,
  0x00009C00u,
  0x00002F00u,
  0x000000B5u,
  0x009EF891u,
  0x000000FEu,
  0x52000000u,
  0x00F6B83Eu,
  0x0000B400u,
  0x0000DF00u,
  0xCFA17E00u,
  0xD40036C3u,
  0x001D8100u,
  0xB0925F00u,
  0x6D000000u,
  0x270B6B46u,
  0x00920000u,
  0xEA851100u,
  0xED000000u,
  0x00EA8200u,
  0x009D0054u,
  0x10B2EE00u,
  0xA8000000u,
  0x0000003Au,
  0x0000002Eu,
  0x00001100u,
  0x0000000Du,
  0x00000000u,
  0xB900C935u,
  0x00000000u,
  0x3500C4B0u,
  0x00C20A00u,
  0xCE040600u,
  0x49007600u,
  0x00202800u,
  0x00009800u,
  0xD0000000u,
  0x456F5D00u,
  0x21005400u,
  0x00000000u,
  0x410000A3u,
  0x00B20CF2u,
  0xF60000BBu,
  0x00C400B0u,
  0x515E2600u,
  0x00000000u,
  0xAE350000u,
  0x00E60000u,
  0x4B004E00u,
  0x00000000u,
  0x004F0071u,
  0xD5EF4B00u,
  0x00000000u,
  0x0000009Au,
  0x00000DE5u,
  0x1D00009Au,
  0x0000F400u,
  0x000000A4u,
  0x00000000u,
  0x3A3E610Au,
  0x009C0000u,
  0x00657D12u,
  0x93007000u,
  0x00586653u,
  0xA7007500u,
  0xA192004Cu,
  0x74009999u,
  0xC000EA00u,
  0x00005B1Cu,
  0xA9000000u,
  0x7E713C00u,
  0xAF9D4200u,
  0x004700A7u,
  0xAA4F0000u,
  0xF74730C6u,
  0xBA00BBC6u,
  0x96CB0000u,
  0xEE34A600u,
  0x0000007Au,
  0x0000E017u,
  0x4600DF00u,
  0xEB00004Au,
  0x003D0015u,
  0x00004B6Au,
  0xEDEEEE00u,
  0x00000000u,
  0xCB7F0097u,
  0xF3000000u,
  0xB32200D4u,
  0x6B00BD00u,
  0x62000000u,
  0xC070C300u,
  0x008E00F4u,
  0x00480076u,
  0x5DD57700u,
  0x3F00AD00u,
  0x00A8F500u,
  0x00001600u,
  0x9A0000B8u,
  0x00000000u,
  0xAAF8B200u,
  0xB6261F07u,
  0x980027CEu,
  0x0000C800u,
  0x00EA265Cu,
  0x000000A1u,
  0xF3B60000u,
  0x0000006Bu,
  0x002A00C0u,
  0x0000EF00u,
  0xACACC900u,
  0x8008BF00u,
  0x117600ADu,
  0x00440000u,
  0xF1640000u,
  0xEB001EBDu,
  0x00000088u,
  0x58E40090u,
  0x0000005Du,
  0x003A00A9u,
  0x00C70399u,
  0x82000000u,
  0xECCFF600u,
  0x0000AD9Du,
  0x0000E0C7u,
  0xB5B600CCu,
  0x0A1FBF21u,
  0xF96FE08Au,
  0x00005C00u,
  0x7E000000u,
  0x3A00A800u,
  0x005F0000u,
  0x00002000u,
  0x6B000000u,
  0xDC440000u,
  0x1B000000u,
  0x00A500E1u,
  0x005D005Cu,
  0x00A6A100u,
  0xC776DF27u,
  0x00F40047u,
  0x00000000u,
  0x004A0000u,
  0x00002CD7u,
  0xBA000000u,
  0x256F903Au,
  0x00000000u,
  0x000000EAu,
  0x00000000u,
  0x00D10046u,
  0xFD000000u,
  0xD300004Du,
  0xCD1BAE00u,
  0x00000000u,
  0x00000022u,
  0x0300B628u,
  0x91006600u,
  0x00AF001Eu,
  0x00000000u,
  0x46E40000u,
  0x00BE688Cu,
  0x0000EC21u,
  0xC0000058u,
  0xA5000714u,
  0x331B0062u,
  0x006F0026u,
  0xA7000000u,
  0x68008C00u,
  0x000034CBu,
  0x007C0004u,
  0x00000000u,
  0x00E40D00u,
  0x5F00443Bu,
  0x0000005Au,
  0x006A0000u,
  0x0000E9D2u,
  0x00C03D5Eu,
  0x00347300u,
  0x06D1DAFAu,
  0x00006000u,
  0xAEFB00F8u,
  0xE200B617u,
  0x14AEE3D1u,
  0x00BD00E3u,
  0x00006D5Cu,
  0xC1005789u,
  0x004C1200u,
  0x6A000000u,
  0x00DFAD00u,
  0xBE00C423u,
  0x00001031u,
  0x9618004Bu,
  0xE58000F7u,
  0x008C0000u,
  0xDC30A000u,
  0x0000005Au,
  0x00007333u,
  0x0000A702u,
  0x00DC1471u,
  0x73005F00u,
  0x9200EA00u,
  0x00F06600u,
  0x000000FEu,
  0x00002300u,
  0x008B9B00u,
  0x56340000u,
  0x001F0000u,
  0x000000FCu,
  0xC3000000u,
  0xFF000000u,
  0xF6000000u,
  0x00800000u,
  0x00E003EBu,
  0x7D000000u,
  0xFE5A0000u,
  0xE08B0000u,
  0x006C7600u,
  0x53006D03u,
  0x0C4B2C7Cu,
  0x00200000u,
  0x002D3E00u,
  0x00E95500u,
  0x65599F9Du,
  0x8700ED4Bu,
  0x276A179Du,
  0x00000000u,
  0x10D06E00u,
  0xBEBF00A9u,
  0x00EE0000u,
  0x0015236Fu,
  0x00000200u,
  0x00006F00u,
  0x0000D59Bu,
  0xEE67B600u,
  0x104CA933u,
  0x3CB30000u,
  0x000000B5u,
  0x00000078u,
  0xB0CAA35Cu,
  0xC7002200u,
  0x880E0000u,
  0xBD006D59u,
  0x6300C737u,
  0x00970000u,
  0xB5000000u,
  0x00000000u,
  0x807F6800u,
  0x28489A00u,
  0x23A80039u,
  0x002F9B80u,
  0x4000E800u,
  0xDCDA00E0u,
  0x00000000u,
  0x00764BA4u,
  0x17500023u,
  0x00BC0000u,
  0x0066EA00u,
  0x9F009033u,
  0xA1000200u,
  0x800000A8u,
  0x00190000u,
  0xEBA8C0C6u,
  0x000058ECu,
  0x2792A800u,
  0x00E67D00u,
  0x00004C00u,
  0x005D0000u,
  0x00ED9111u,
  0x06009F91u,
  0xAB6B0000u,
  0x84CF0000u,
  0x72150000u,
  0x00004700u,
  0x0000A400u,
  0xC3001C00u,
  0x19000000u,
  0x00522B00u,
  0x4D1C00F6u,
  0x00000035u,
  0x35B500FCu,
  0x9D000000u,
  0xD3000400u,
  0x19000040u,
  0x7800B696u,
  0x3D65007Eu,
  0x004A0000u,
  0x0000B100u,
  0x0000D7ECu,
  0xB2E10000u,
  0x00827800u,
  0x00000000u,
  0x0000C81Fu,
  0xAB000000u,
  0x00E141C6u,
  0x00000000u,
  0x8CE10000u,
  0x00C200D2u,
  0x63000000u,
  0x00FE9A00u,
  0x61CF0000u,
  0xF7000000u,
  0x90AC0069u,
  0x000000FCu,
  0x5D00F8DFu,
  0x00000000u,
  0xEBE50042u,
  0x00D0D300u,
  0x000000D1u,
  0x00000000u,
  0x00AC0000u,
  0x7D0D009Cu,
  0x00A92200u,
  0x0000B372u,
  0x000000A3u,
  0x000000A2u,
  0x8B0F00CAu,
  0x00000038u,
  0x00B38200u,
  0x31009700u,
  0xF0483A00u,
  0x00597023u,
  0xA521E500u,
  0x0000A900u,
  0x00C2E0CDu,
  0x0000B700u,
  0x00001F00u,
  0x00898000u,
  0x0000A600u,
  0x0428005Du,
  0xC4210000u,
  0x1D350000u,
  0x0DE96800u,
  0x1C930088u,
  0xCE001000u,
  0x00220000u,
  0x00009800u,
  0x6700B600u,
  0x5C000000u,
  0x00004C00u,
  0x67BE3B00u,
  0x00002D00u,
  0x006D7D00u,
  0x0000CB00u,
  0x00000000u,
  0x7C9CA400u,
  0x0089AEC6u,
  0x000000AEu,
  0x2B00005Fu,
  0x0000009Bu,
  0x00AD0056u,
  0x842000AFu,
  0x00000000u,
  0x8900B606u,
  0x79001DC3u,
  0x00807DA8u,
  0xC1000000u,
  0xE38AF98Bu,
  0x65000000u,
  0x75003500u,
  0xAC00A400u,
  0x07200000u,
  0x4A000023u,
  0x00000000u,
  0x00270000u,
  0x00000000u,
  0x0000254Eu,
  0x0000004Du,
  0xC8000000u,
  0x00009B23u,
  0x020000C1u,
  0x215E004Du,
  0x00002399u,
  0xE8890049u,
  0x57000000u,
  0x94000000u,
  0x00EE6500u,
  0x00000028u,
  0xA9210D00u,
  0x007AC000u,
  0x95001C00u,
  0x00006600u,
  0x00000000u,
  0x00006A00u,
  0x4F4A0092u,
  0x00000031u,
  0xBD00D927u,
  0x8D84FB00u,
  0x00005400u,
  0x59000000u,
  0xA3000008u,
  0x006C8800u,
  0x00D93A16u,
  0x16BD0000u,
  0xEFDA74B1u,
  0x37C30000u,
  0x1AB90000u,
  0x00C31245u,
  0x00E20000u,
  0x6CB60000u,
  0x0000C400u,
  0x6F80F674u,
  0x000000DAu,
  0x001A8200u,
  0x1C000000u,
  0x90002200u,
  0x0040002Au,
  0x81003643u,
  0x001E6700u,
  0x57120000u,
  0x16000000u,
  0x00BC6BCDu,
  0x00006E00u,
  0xE000BC00u,
  0x0B007E00u,
  0x0000007Eu,
  0x00000081u,
  0x27E8006Bu,
  0x00710000u,
  0x00BB5487u,
  0x0000CC5Bu,
  0x0E49007Fu,
  0x00E78500u,
  0x00009433u,
  0x8E00F600u,
  0x0000005Bu,
  0xEA009E00u,
  0x00000024u,
  0x0036F200u,
  0x291C8006u,
  0x4A0000BAu,
  0x99414E00u,
  0x00170000u,
  0x00C70000u,
  0x00000041u,
  0xCD000000u,
  0xD8829FE6u,
  0x0000C700u,
  0xCF230000u,
  0x720000E8u,
  0x00000070u,
  0x00CC0000u,
  0x00B45C00u,
  0x00000000u,
  0x00003704u,
  0xD2E30000u,
  0x2200F700u,
  0x00C600F3u,
  0x0060003Cu,
  0x00FE3DF2u,
  0x00E0AE12u,
  0x00CA00FBu,
  0x11000037u,
  0x00DEC37Cu,
  0x6E0009B0u,
  0xFF000045u,
  0x96C84CBBu,
  0x00264B99u,
  0xB60000EFu,
  0x0000004Cu,
  0x88003B19u,
  0xF95F0000u,
  0xA4004600u,
  0x4CF60000u,
  0x00000000u,
  0x02F00021u,
  0x09775AB4u,
  0xBEA02600u,
  0xDA000000u,
  0x00000007u,
  0x31D20000u,
  0x00CDB300u,
  0x008000B5u,
  0x00000020u,
  0x000000D3u,
  0x00000072u,
  0xB4007B3Au,
  0x01000072u,
  0xFA7A0039u,
  0x00F30000u,
  0x647AAD57u,
  0x00009FABu,
  0x00DFA14Eu,
  0x000000DFu,
  0x91A3006Au,
  0x6500A400u,
  0x00A90000u,
  0x00007800u,
  0x0041DB18u,
  0xD8000018u,
  0x00007D00u,
  0x00000000u,
  0x00C6CF00u,
  0x000000B9u,
  0xD58E5B0Eu,
  0x2C098500u,
  0x00000000u,
  0x1133B300u,
  0xC914003Fu,
  0x00AB593Cu,
  0x00602A00u,
  0x21008B00u,
  0x85150000u,
  0x816C006Cu,
  0x62F16A11u,
  0xE76D7701u,
  0x0097649Bu,
  0x00F50000u,
  0x00000600u,
  0x00000000u,
  0x00000054u,
  0xC0003F00u,
  0x00000000u,
  0x00000000u,
  0x00ECD800u,
  0x00000000u,
  0x004C2102u,
  0x0008FD00u,
  0x6C00424Cu,
  0xE1F100B7u,
  0x38000000u,
  0x725EB6D9u,
  0x000E00B4u,
  0x00007500u,
  0xF462008Bu,
  0x0067EFE1u,
  0x00000000u,
  0x000000FCu,
  0x005F6100u,
  0xC42FE500u,
  0x00009600u,
  0xB6F85C99u,
  0x00002700u,
  0x77000000u,
  0x6E0A0000u,
  0x96A0002Au,
  0xE6620900u,
  0x1B000000u,
  0x00380000u,
  0x001800F4u,
  0x006B575Au,
  0xD2000000u,
  0x00750700u,
  0x28A10000u,
  0x96B70015u,
  0x993E0000u,
  0x00500000u,
  0x64F8EE00u,
  0x00A50E00u,
  0x002BB700u,
  0xEA000000u,
  0x0000CC00u,
  0x00470000u,
  0x3EB55F00u,
  0x00CB7A00u,
  0x00000000u,
  0x00000000u,
  0x6D000000u,
  0x00F6009Au,
  0x00000052u,
  0x00209000u,
  0x002900E7u,
  0x00B1A209u,
  0xC0006F30u,
  0x38E87DA4u,
  0x1A000000u,
  0xDDA99F00u,
  0xA9C59400u,
  0x860040F2u,
  0x00000000u,
  0x00E90095u,
  0x00004300u,
  0x6F0000ABu,
  0x0EE1A200u,
  0x0000BC00u,
  0x000000E9u,
  0x6A055347u,
  0x00005900u,
  0xC0010000u,
  0xE7CAECB9u,
  0xB700D9A8u,
  0xED152900u,
  0x0000004Eu,
  0x007C0000u,
  0x00CAE42Cu,
  0x00000072u,
  0x1E006400u,
  0x0000B100u,
  0xB3000000u,
  0x77BF004Eu,
  0x0000009Fu,
  0x00360000u,
  0x247A0031u,
  0x33000027u,
  0x00D80000u,
  0x9200009Bu,
  0x29278000u,
  0x008BD100u,
  0x000006DCu,
  0x00000322u,
  0x007B4282u,
  0x79200000u,
  0x00005353u,
  0x0067001Au,
  0xEDB2DC00u,
  0x00C85800u,
  0x1A009E00u,
  0x20A300ACu,
  0x00C60B1Eu,
  0x03940000u,
  0x7E6C6800u,
  0x0053DD00u,
  0x001BCE00u,
  0x9600278Au,
  0x0000001Fu,
  0xC1C3DE00u,
  0x5ABF0000u,
  0x5D1E0000u,
  0x00000094u,
  0x00007E22u,
  0x00000000u,
  0xB758DBBCu,
  0x000000A1u,
  0x7DDA1200u,
  0xAF001400u,
  0x000DBA00u,
  0x00000000u,
  0x0600ABFFu,
  0x7E005363u,
  0x3F00EF2Au,
  0x00000000u,
  0x00004500u,
  0x000A0000u,
  0x71C85B00u,
  0x00110095u,
  0x00000050u,
  0x75B4002Au,
  0x00000000u,
  0x00E40000u,
  0x00000000u,
  0xFC000000u,
  0xC400A000u,
  0xB7406700u,
  0x40000000u,
  0x41ED6500u,
  0x95FBD101u,
  0x00009029u,
  0x00004A30u,
  0xD9000000u,
  0xA72BE300u,
  0x68E9CC1Fu,
  0x00000000u,
  0x6F350000u,
  0xDA9FA900u,
  0x00D07500u,
  0x49005FA1u,
  0xE00000EEu,
  0x00CC5D78u,
  0xA6008000u,
  0x00420000u,
  0xE5570000u,
  0x190000B6u,
  0xA500008Fu,
  0x916DB385u,
  0x004CD995u,
  0x001A000Bu,
  0x00005500u,
  0xE8F6B758u,
  0x0000E797u,
  0x50880000u,
  0x18410042u,
  0x00000000u,
  0x005CCC00u,
  0x867E1738u,
  0xD900D650u,
  0x641B0000u,
  0x00CCF7B1u,
  0x1A000D00u,
  0xDAC500D0u,
  0x3600DED7u,
  0x00BAE64Du,
  0x979000A5u,
  0x1A150000u,
  0x270000ECu,
  0xD7000000u,
  0x0020236Fu,
  0x00440000u,
  0x00F95500u,
  0x816F4900u,
  0x6883E100u,
  0xE500E7F6u,
  0xD1306900u,
  0xD395AE00u,
  0x80137A00u,
  0x00ED0045u,
  0x1F001800u,
  0xBB000000u,
  0x00000D00u,
  0x00000000u,
  0x5DC40000u,
  0x000000F0u,
  0xA8002600u,
  0x000056D9u,
  0x002D0020u,
  0x4500661Eu,
  0x036E0000u,
  0x00AE0022u,
  0x000000ACu,
  0x00AF003Bu,
  0x116601A9u,
  0x190002F9u,
  0x0000B500u,
  0xB49FDC00u,
  0x00000025u,
  0x0000002Eu,
  0x778A0000u,
  0xEF00254Cu,
  0x004A0081u,
  0xE1629DCEu,
  0x00BA000Eu,
  0x000000C4u,
  0x9BF20094u,
  0xDD72DD00u,
  0x5A1E00C1u,
  0x5277FC00u,
  0x00299600u,
  0xEDF300CDu,
  0x00E1AA00u,
  0x00490000u,
  0x00000000u,
  0xC6000099u,
  0x00005600u,
  0x008A6B68u,
  0x33002600u,
  0xDB1700CDu,
  0x000000B8u,
  0x009400BDu,
  0x0EA40025u,
  0x00E4A433u,
  0x00003F21u,
  0x70080074u,
  0x000000F8u,
  0x96C26400u,
  0x85009FA6u,
  0x008F6B79u,
  0x4F000000u,
  0x66E178C1u,
  0x00F60000u,
  0x007BD734u,
  0x00510000u,
  0x1B00CA00u,
  0x2C0DA382u,
  0xAD0DDC00u,
  0x0000D332u,
  0x1100001Du,
  0x009F0000u,
  0x00006400u,
  0x00006A00u,
  0x00000038u,
  0x00BF007Cu,
  0xE6000000u,
  0x40255F27u,
  0x4B000097u,
  0xC7275694u,
  0x36000000u,
  0x410000F6u,
  0xE8000025u,
  0x0035005Fu,
  0xD6000000u,
  0x0000AEFBu,
  0x093F517Cu,
  0x00D90037u,
  0xA6D6FC3Eu,
  0x1F000000u,
  0x00310000u,
  0x0000000Fu,
  0x280039E0u,
  0x0300D700u,
  0xF0000000u,
  0xF687E400u,
  0x00000000u,
  0x3D008733u,
  0xC6AEE897u,
  0xB2639D00u,
  0xB7F59300u,
  0x00790000u,
  0x840000A5u,
  0x0000F154u,
  0xD2C46602u,
  0xBC00D11Fu,
  0x00000000u,
  0x6F2A0000u,
  0x00DC0000u,
  0x00BD9D00u,
  0x00000000u,
  0x73007700u,
  0x363B00B5u,
  0x31000000u,
  0x000023EDu,
  0x000000E7u,
  0xE7008A00u,
  0x003CE800u,
  0x674E2C00u,
  0x00009451u,
  0x7E9F0000u,
  0x000045A7u,
  0xC968163Fu,
  0xFEF00000u,
  0x00000C4Fu,
  0x7100FE00u,
  0xB9007000u,
  0xB800D4F3u,
  0x000086F7u,
  0x00D00000u,
  0xFE004200u,
  0x00EA0000u,
  0x00CE8100u,
  0x004A4B77u,
  0xDB000000u,
  0x007FD800u,
  0xFF6E00DDu,
  0x00000023u,
  0x49009D00u,
  0x4CA12CDCu,
  0x008E4FCFu,
  0x1B330888u,
  0x6E907000u,
  0x009C0000u,
  0x0000F000u,
  0x0000EF00u,
  0xA0123500u,
  0xDD930800u,
  0x00AF0000u,
  0x00006EB0u,
  0x12AC0000u,
  0x6A2B0061u,
  0x00004900u,
  0x0059A591u,
  0xAD00BDF0u,
  0x00007E9Au,
  0x6AA0E900u,
  0x00008D00u,
  0x00005011u,
  0x00B100E3u,
  0x00000000u,
  0x00B80000u,
  0x00F4D900u,
  0x9E005700u,
  0x0000AF67u,
  0x0000CC96u,
  0x04005819u,
  0x00810000u,
  0x1F34001Eu,
  0x5DE1B855u,
  0x48000000u,
  0x0700009Du,
  0x0000E000u,
  0x04040000u,
  0x0013EF00u,
  0x00000000u,
  0x00000EC3u,
  0x00000000u,
  0x0034D400u,
  0x0000004Au,
  0xDA00F900u,
  0x00B40000u,
  0x0000002Bu,
  0x30D0003Cu,
  0x00007251u,
  0x043A0000u,
  0xDB00AE00u,
  0x000000F9u,
  0x0000A5E1u,
  0x6A00003Cu,
  0x06009220u,
  0x84000048u,
  0x00480000u,
  0x00129908u,
  0xAA0000CCu,
  0x005CC36Cu,
  0xC3D40F4Cu,
  0x41F7A900u,
  0xA200F900u,
  0x91E72000u,
  0xD8C32B14u,
  0x00000000u,
  0x0030EB00u,
  0x0000F300u,
  0xFE00342Au,
  0x00000000u,
  0x8D5B0000u,
  0x7A000000u,
  0xA57F00BBu,
  0x00001400u,
  0xF51A00C0u,
  0x00B100EEu,
  0x350000C7u,
  0x002867C3u,
  0x00004800u,
  0xAADCE100u,
  0x1900B100u,
  0xD9946593u,
  0xE1000000u,
  0xBC19F600u,
  0x000000D0u,
  0x0000B100u,
  0x0B00008Eu,
  0x003B8000u,
  0x0000F5DDu,
  0x000000C8u,
  0x00AD9E00u,
  0x0000B685u,
  0x00004500u,
  0x0000D3E4u,
  0x30630000u,
  0x000A0096u,
  0x00260000u,
  0x00520085u,
  0x1B00000Fu,
  0x0B203200u,
  0x00007919u,
  0xF600B0C0u,
  0x00003A00u,
  0x00000078u,
  0x000039AFu,
  0x22000000u,
  0x0000004Bu,
  0xB0CC6B49u,
  0xDF007E00u,
  0x0025883Au,
  0xCC0000F0u,
  0x000F0000u,
  0x00000000u,
  0x003D8000u,
  0x00000000u,
  0x2500E300u,
  0xEED5F700u,
  0x0000007Cu,
  0xCE000000u,
  0x000000BAu,
  0x00D7255Eu,
  0x75E60094u,
  0x00094017u,
  0x83AD06C6u,
  0x000017B3u,
  0xF3003106u,
  0x1926003Eu,
  0x00519D00u,
  0xC8440000u,
  0x005A4600u,
  0x002D0000u,
  0x59000000u,
  0xCA3A0000u,
  0x00000076u,
  0x0000BC00u,
  0x005CFD00u,
  0x48C2B4ADu,
  0x006A5700u,
  0x75000000u,
  0x97C4A000u,
  0x005143DFu,
  0x920022B6u,
  0x00003109u,
  0x8B512C00u,
  0x0000C5D2u,
  0x005A0045u,
  0xE3000055u,
  0xAEB00000u,
  0x73000000u,
  0x07000000u,
  0x00000005u,
  0x43000000u,
  0x2C008CA2u,
  0xCD005579u,
  0x0000463Bu,
  0x3A0003C4u,
  0x00F60000u,
  0x3FD64900u,
  0x0000B500u,
  0x00500000u,
  0x0000005Bu,
  0x00000079u,
  0x0008000Au,
  0x00160000u,
  0x00000000u,
  0x00000000u,
  0xB3000500u,
  0x00000000u,
  0x008D00BBu,
  0x18320200u,
  0x00893300u,
  0xF85500ACu,
  0x00B168DFu,
  0xDC0056A6u,
  0xC3F27500u,
  0x009B0000u,
  0x008F0000u,
  0xCC00BF35u,
  0x00E60000u,
  0x00BD00C8u,
  0x5F00EA00u,
  0x00000000u,
  0x00000F00u,
  0x008BE500u,
  0x85776E00u,
  0x0000F389u,
  0xA4820048u,
  0x009300BFu,
  0x0057B5FDu,
  0x009BC749u,
  0xD78A0000u,
  0x00000000u,
  0xCF000000u,
  0xF7BAF2FEu,
  0xB400000Du,
  0x0000A000u,
  0x00000000u,
  0x00004300u,
  0x00400000u,
  0x003C0000u,
  0x0000DF00u,
  0x00000068u,
  0x0000BA74u,
  0x00C20000u,
  0x00000000u,
  0x00C26200u,
  0x8A2A6600u,
  0xB4D000D1u,
  0x00000073u,
  0x5C00008Eu,
  0x00E76E00u,
  0x44000000u,
  0x00710000u,
  0xDFE99D00u,
  0x009E4200u,
  0x00F80000u,
  0x07000000u,
  0x00005A00u,
  0x00005676u,
  0x00007500u,
  0x49E3001Du,
  0x30000000u,
  0x00007600u,
  0x000D005Au,
  0x009F0027u,
  0xBC917F00u,
  0x0000EF00u,
  0xF30050B7u,
  0x54000000u,
  0xC41A0CF0u,
  0x6ECE1700u,
  0x66000000u,
  0x7D000092u,
  0x0E004752u,
  0x00000000u,
  0x00005500u,
  0x00D11100u,
  0x00DA0000u,
  0xF4000800u,
  0x92FF1238u,
  0x00450078u,
  0x00AFC100u,
  0x0000626Eu,
  0x3800007Du,
  0x0000B700u,
  0x7B5A0057u,
  0x00660000u,
  0x43FC0000u,
  0x00EDD11Bu,
  0x00956700u,
  0x79970000u,
  0x00000000u,
  0xA54EE200u,
  0x9500008Eu,
  0xBE00916Cu,
  0xEB000000u,
  0x56002978u,
  0x00000000u,
  0x00B90000u,
  0x000000B2u,
  0x00031300u,
  0x00009800u,
  0x00C02100u,
  0x00007E11u,
  0x540000F1u,
  0x00000036u,
  0x270000B9u,
  0xE5A60042u,
  0x0000E200u,
  0x0000002Bu,
  0xF0BC1DA7u,
  0x0000007Fu,
  0x00000000u,
  0x7A5EBC00u,
  0xE9DE6F23u,
  0x00000034u,
  0x98000000u,
  0x00E2BC00u,
  0x00000090u,
  0x006800DEu,
  0xA247009Du,
  0x4C7F4D48u,
  0x0058C700u,
  0x97F40008u,
  0x00320000u,
  0x12000000u,
  0xC600004Du,
  0x18000000u,
  0x00A69DF1u,
  0xD4000000u,
  0x003851EFu,
  0x00000600u,
  0x00000015u,
  0x00BE0066u,
  0xFECF0000u,
  0xB1D5C800u,
  0x0088B9A8u,
  0x2E000000u,
  0x00001B37u,
  0x00000041u,
  0x26006700u,
  0x000000A1u,
  0x4D00CDDBu,
  0xC10092FAu,
  0x000000CCu,
  0x40000000u,
  0x00004776u,
  0x0012BB7Du,
  0xAF008F00u,
  0x2485001Cu,
  0x3200DC00u,
  0x7D0D0000u,
  0x00000081u,
  0xB331004Du,
  0x5500FEDDu,
  0x397400C3u,
  0x5B003253u,
  0xAD680000u,
  0x0071009Au,
  0x00000026u,
  0x00000F00u,
  0x000000DAu,
  0x0011A1B0u,
  0xDC00A98Cu,
  0x0013A500u,
  0x04000000u,
  0xD2B51600u,
  0x00351D8Fu,
  0x00640000u,
  0x7E000300u,
  0x00ED5B63u,
  0x00000091u,
  0x9A0000D5u,
  0x0000D200u,
  0x0340E9D7u,
  0x00B80000u,
  0xB2EB3221u,
  0x31750051u,
  0x34DE0000u,
  0x002C2B00u,
  0x00006200u,
  0xDD0067AAu,
  0xC8003500u,
  0x447C9AFEu,
  0x00AD0A00u,
  0x2762C400u,
  0x0224009Eu,
  0x3909B600u,
  0x6E11007Cu,
  0x000000DAu,
  0x09644200u,
  0x32000000u,
  0x00BA6D48u,
  0xD5B98643u,
  0x4B00007Au,
  0x00A20000u,
  0x6E000096u,
  0x95000000u,
  0x8E8D00B7u,
  0xDB168AE7u,
  0x0000B000u,
  0x00000000u,
  0x006E00F1u,
  0x2F640000u,
  0xE900CFC1u,
  0x0D866CA9u,
  0x7F005900u,
  0xFE007E00u,
  0x7A000000u,
  0x00000049u,
  0x0056E8FDu,
  0x0000007Eu,
  0x89570000u,
  0x00000000u,
  0x28BE006Cu,
  0x0066444Au,
  0x735ACF00u,
  0x6D0E0000u,
  0x3D00000Fu,
  0xF5000000u,
  0x00C2004Eu,
  0x0000AE59u,
  0x000072E6u,
  0x51000000u,
  0xA000A86Eu,
  0x00000000u,
  0x8A000041u,
  0x000000DDu,
  0x00001614u,
  0x9A002A00u,
  0x73799D00u,
  0x001200A3u,
  0x9D005800u,
  0xDF00D481u,
  0x00009400u,
  0x64000072u,
  0x6A0023E5u,
  0xE9001F8Fu,
  0x23002B00u,
  0x00D400AFu,
  0xB81F0000u,
  0x0C8100C3u,
  0x49001715u,
  0x00000000u,
  0x0A007100u,
  0x57686400u,
  0x003D8000u,
  0x0000E39Bu,
  0xDCD94941u,
  0xD7330F8Bu,
  0x6728F400u,
  0x9AA00000u,
  0x00006100u,
  0x00EAE600u,
  0x157C4200u,
  0x0000A7B0u,
  0x7F009E00u,
  0x00001900u,
  0x00B800E7u,
  0x82190000u,
  0x00006500u,
  0x85470000u,
  0x002B0000u,
  0x00000000u,
  0xBB003B00u,
  0x7D790074u,
  0x00A75743u,
  0x00009E00u,
  0x00008700u,
  0x00C47D51u,
  0x003B1C6Bu,
  0x07000003u,
  0x4DD4008Cu,
  0x13006447u,
  0x00000000u,
  0x9F000000u,
  0x0000A68Eu,
  0x001E0000u,
  0x00770070u,
  0x6E2D1516u,
  0x0000D885u,
  0x00005B00u,
  0xDC9ABD00u,
  0xE52AA63Du,
  0x007ABCBCu,
  0x00470012u,
  0x00FA0000u,
  0x0000BB00u,
  0x00B50045u,
  0x00C40003u,
  0x00A70000u,
  0x00A94200u,
  0x2B000021u,
  0xAA426100u,
  0x2D130000u,
  0x25007D00u,
  0x0000E900u,
  0xB0000164u,
  0xF7E0C000u,
  0x79000000u,
  0xF3009FF9u,
  0xBF0B8D0Du,
  0x9A004F88u,
  0xA6DA9AF4u,
  0x00D500A0u,
  0x48007000u,
  0xF1000000u,
  0x8E000057u,
  0x5F00DC00u,
  0x005A3400u,
  0x09000030u,
  0x0000AD06u,
  0x00410000u,
  0x1D000077u,
  0xDB00D700u,
  0x00E28300u,
  0x0016EB28u,
  0x00AC4B00u,
  0xCF225600u,
  0x0C12B200u,
  0xDA945100u,
  0xE900002Cu,
  0x002E0000u,
  0x00E8007Cu,
  0x00000000u,
  0x0082004Cu,
  0x00006D62u,
  0x00000000u,
  0x006D3100u,
  0x00000E00u,
  0xA8000096u,
  0x80D5AE00u,
  0xF3000000u,
  0xA3C16000u,
  0xC4C495E0u,
  0xAEAF0000u,
  0x00346F00u,
  0x00540000u,
  0x077700B3u,
  0x0081F479u,
  0x7E004100u,
  0x83000000u,
  0x0000EFB1u,
  0x0100F038u,
  0x557AD200u,
  0xF7000000u,
  0x0035001Du,
  0x003CCD00u,
  0x43000000u,
  0xB200000Du,
  0xED0E0000u,
  0xC17B2A82u,
  0x78000000u,
  0x59006200u,
  0x366A5200u,
  0x38A60000u,
  0xEF001F00u,
  0x0000875Du,
  0xD6000000u,
  0x00000000u,
  0x001991D8u,
  0x258FDD90u,
  0x00000067u,
  0x00AB43E5u,
  0xFDDB1800u,
  0x00BD71E0u,
  0x16007A50u,
  0x9F5C001Du,
  0x09F100D4u,
  0x00E61500u,
  0xAA280075u,
  0x120000A8u,
  0x00007900u,
  0xD500C42Du,
  0xCE0000F3u,
  0x9F000000u,
  0x4100003Du,
  0x00100000u,
  0x94ED0000u,
  0x00003300u,
  0xCC009D00u,
  0x6E6F0000u,
  0x00000F00u,
  0x5C89F200u,
  0x0A009818u,
  0x00000000u,
  0x000000D0u,
  0xB500651Bu,
  0x005F00C3u,
  0x71F43CD5u,
  0xB100003Cu,
  0xB8DD0000u,
  0xA6E60000u,
  0x00000085u,
  0x19EF0000u,
  0x002E00C1u,
  0x00001835u,
  0x00E846D7u,
  0x7D190000u,
  0x52000D9Bu,
  0x3B7F3900u,
  0x65A55762u,
  0x00000000u,
  0x00000000u,
  0xD30000CBu,
  0x00004CC7u,
  0x00000000u,
  0x00E50008u,
  0x00B92700u,
  0x00454400u,
  0x00460016u,
  0x00E68277u,
  0x75000000u,
  0xFE0000B9u,
  0x00579F00u,
  0x003A5E9Du,
  0x0000C100u,
  0x8D760000u,
  0x00000000u,
  0xE600CFE1u,
  0x50000016u,
  0x001C8E00u,
  0xF68248B5u,
  0x54F16F00u,
  0x246E2EDBu,
  0xE8000000u,
  0x9D001CE4u,
  0x00003A00u,
  0x1500A641u,
  0x0000002Bu,
  0x049E6DB6u,
  0x0008D355u,
  0x00110000u,
  0x8400D200u,
  0x002D0000u,
  0xD3000071u,
  0xFA4E0000u,
  0xA5360000u,
  0x620E6B00u,
  0xF07C2C00u,
  0x00000000u,
  0x00EC5E00u,
  0x00090058u,
  0xA59200CCu,
  0x0000BD00u,
  0x00000013u,
  0x0016F600u,
  0x00000000u,
  0x00430059u,
  0x839D1A00u,
  0xDBFBE570u,
  0xF331E695u,
  0x000000BFu,
  0x00000000u,
  0x00320026u,
  0x000000E5u,
  0x130000EAu,
  0xBD000032u,
  0x730000D6u,
  0xC3000000u,
  0x00090092u,
  0x1100F3DDu,
  0x0800EBF1u,
  0x00F42600u,
  0xABE60000u,
  0x00859CCAu,
  0x02C16F1Cu,
  0x00009900u,
  0x69004E00u,
  0x000053F9u,
  0x00000400u,
  0x00000011u,
  0x00000000u,
  0x9B005900u,
  0x5F7D0000u,
  0x9D28E044u,
  0x0000B700u,
  0x5500009Au,
  0x00950900u,
  0xC09F0000u,
  0x4000E02Eu,
  0x2C3700BFu,
  0x00A6003Eu,
  0xCFBB0000u,
  0x1E91CD00u,
  0x00000000u,
  0xC50D0000u,
  0x00000036u,
  0x7A496BA0u,
  0xF9000000u,
  0xDDF74500u,
  0x000000A3u,
  0x002185CCu,
  0x00001127u,
  0x02007700u,
  0x0000BB03u,
  0x00C65300u,
  0xB20077FDu,
  0x00475800u,
  0x76120000u,
  0x0056F700u,
  0x37000000u,
  0x0000208Eu,
  0x0000137Au,
  0x00A30000u,
  0x00006AE5u,
  0x00000000u,
  0x0000F600u,
  0x0000BDA6u,
  0x83360000u,
  0x00008612u,
  0x72003700u,
  0xA8B10088u,
  0x6600A400u,
  0x009AC001u,
  0x00000000u,
  0x61C1000Cu,
  0x6100EB10u,
  0xA900D200u,
  0x00000000u,
  0x06000000u,
  0x31005700u,
  0x00005100u,
  0x0600006Fu,
  0x19005600u,
  0x00000000u,
  0x106A5D00u,
  0x601E0000u,
  0xDF000034u,
  0x0000000Du,
  0x14F81DCCu,
  0x00DF0000u,
  0x03000011u,
  0x00005A81u,
  0x0DEF0009u,
  0x00000000u,
  0x00003B00u,
  0x00000007u,
  0x004A0000u,
  0x00008F00u,
  0xF0000058u,
  0x00000032u,
  0x008C0000u,
  0x00150045u,
  0x009EC344u,
  0x514EF474u,
  0xA8A67600u,
  0x0000BA04u,
  0xC700EACEu,
  0x001ACD00u,
  0x0F000045u,
  0x00FF0000u,
  0x8E9A0000u,
  0xB4A7EF00u,
  0x00000000u,
  0x000089F1u,
  0x00000000u,
  0x00000000u,
  0x00F90000u,
  0x00BD0064u,
  0x2900AE8Au,
  0xDDEA0000u,
  0x0000006Bu,
  0x08000000u,
  0xDBFDD901u,
  0x76003700u,
  0x00000000u,
  0xC3003A00u,
  0x00001C00u,
  0x8E000051u,
  0x0000001Bu,
  0x0000E300u,
  0x470000E8u,
  0x11670000u,
  0x7D2D0039u,
  0xCF004851u,
  0x4EB8DC76u,
  0x00080000u,
  0xF3119C82u,
  0x0000BE00u,
  0x00007A95u,
  0x00000000u,
  0xB6E700C4u,
  0x79004F17u,
  0x17000063u,
  0x00790000u,
  0x00000089u,
  0x00A72100u,
  0x00900000u,
  0xAE400087u,
  0xE7009700u,
  0x1EE33D00u,
  0x00006A94u,
  0x58A9A3E7u,
  0xFA00E0F1u,
  0xD1AA9100u,
  0xE60000A2u,
  0xD88200EBu,
  0x002B0000u,
  0xAE620000u,
  0x6A00A106u,
  0x00390027u,
  0x00590000u,
  0x00303010u,
  0x00004342u,
  0x007C0000u,
  0x003E62B8u,
  0x57760000u,
  0x00000000u,
  0x240000BBu,
  0x00003100u,
  0x0000E000u,
  0x9A006112u,
  0x7F008300u,
  0x3D6ED000u,
  0x250044DCu,
  0x08B38200u,
  0x00D100E4u,
  0xEC490000u,
  0x0000003Du,
  0x005F007Bu,
  0x00680000u,
  0x00003DBFu,
  0x00001E00u,
  0x9C3D5500u,
  0x00008FA0u,
  0xD400EDFFu,
  0x00002779u,
  0x00007319u,
  0xC7000000u,
  0x00000000u,
  0x00A3E700u,
  0x47AB0000u,
  0x0E460EB6u,
  0xA500E700u,
  0x5B1D7708u,
  0x613BFC89u,
  0xB6040000u,
  0x00E3A400u,
  0x18004900u,
  0x00000000u,
  0x365D1809u,
  0x1E67B200u,
  0x00901900u,
  0x00360C00u,
  0xC7F10063u,
  0x054D0029u,
  0xDF0F00B2u,
  0x0000DF00u,
  0x00000000u,
  0x00000005u,
  0x00000000u,
  0x00008200u,
  0x0078E825u,
  0x000097C9u,
  0x340000EFu,
  0xB2001FDCu,
  0x00002F20u,
  0x0000C2E3u,
  0x00000032u,
  0x00000071u,
  0x00004E00u,
  0x009D20FBu,
  0x0080F500u,
  0x2D0000A3u,
  0x4F00004Eu,
  0xD70000EAu,
  0x00104000u,
  0x7CC60000u,
  0x38000000u,
  0x6500E4F5u,
  0x899C0000u,
  0xD92B5600u,
  0xA82F0000u,
  0xE500673Fu,
  0x00A0A281u,
  0x459D00B5u,
  0x004D008Du,
  0x28000100u,
  0xC4008E0Cu,
  0x0000004Eu,
  0xBA52009Du,
  0x95110000u,
  0x09B50000u,
  0x00CA0000u,
  0x840FD5ADu,
  0x005D0000u,
  0x03F00000u,
  0x00968F00u,
  0x3800E09Bu,
  0x002F7B00u,
  0xFCBFC500u,
  0x5486006Fu,
  0x9A00DBAFu,
  0x58848800u,
  0x92B9A293u,
  0xC1001A63u,
  0x0000AF7Du,
  0x410060ACu,
  0x9102008Au,
  0x00AE19C2u,
  0x00002540u,
  0x00B21200u,
  0x0000ED00u,
  0x000000B4u,
  0xA91B00BBu,
  0x00005500u,
  0x0061C0F1u,
  0x00385CFEu,
  0x002A634Bu,
  0x00DAE8B1u,
  0xC6120067u,
  0xD6FF9E00u,
  0x00E90000u,
  0x00FE6000u,
  0x8EE54700u,
  0x00D00000u,
  0x00000027u,
  0x001D0000u,
  0x0000577Fu,
  0x00002000u,
  0x00D40018u,
  0x00C50000u,
  0x00510000u,
  0x72000014u,
  0x00075800u,
  0x000077CBu,
  0x0E000000u,
  0x00E376BDu,
  0xBDD70000u,
  0xAB160000u,
  0x00002500u,
  0x49000000u,
  0x0800E1B9u,
  0x006E0000u,
  0xF483DD00u,
  0x00011C7Du,
  0x00000000u,
  0xF16800E8u,
  0x00B63E00u,
  0x002B6E00u,
  0x00262F8Au,
  0xD20000EAu,
  0x0026F5B4u,
  0xA3087E00u,
  0x00E50000u,
  0xF4A800B6u,
  0x697C5069u,
  0x00CF0000u,
  0x35952CD0u,
  0xDCDB0000u,
  0x86000858u,
  0x009D004Fu,
  0x007E0000u,
  0x00420053u,
  0xB200D506u,
  0x00758300u,
  0x439B00D2u,
  0x004B0003u,
  0x5C003200u,
  0xC500CB00u,
  0x00060000u,
  0x28DBC200u,
  0xA6000000u,
  0x0F00003Bu,
  0x002F0000u,
  0x990000F2u,
  0x002AB700u,
  0x00D90000u,
  0x00252E3Au,
  0x89240E00u,
  0x0000A82Fu,
  0x375C0000u,
  0x006150ECu,
  0xD9FE9F00u,
  0x006CACBAu,
  0x00912700u,
  0x000000FCu,
  0x21270000u,
  0xAB002200u,
  0xE0C10000u,
  0x520081E4u,
  0x00003A00u,
  0x0000F800u,
  0xDB000000u,
  0x00002700u,
  0xF03200BEu,
  0x000200AAu,
  0x000010FAu,
  0x005F0000u,
  0x8489004Au,
  0x00000040u,
  0xB50021CFu,
  0xB9000095u,
  0x0C4B187Bu,
  0x00000038u,
  0xA4000085u,
  0xA400C600u,
  0x003D0000u,
  0x000000BFu,
  0x00006400u,
  0xD8B4007Du,
  0x000000A4u,
  0x283C9400u,
  0x3C008200u,
  0x6DB13BE4u,
  0x00000D32u,
  0x0069FF84u,
  0x00000000u,
  0x9A0063DCu,
  0x00D90000u,
  0x755400DAu,
  0x00520000u,
  0x59E3BBD2u,
  0x4E211F2Bu,
  0x000058D0u,
  0x000000A9u,
  0x00008E40u,
  0xAD00573Fu,
  0x649700EDu,
  0x00000000u,
  0x6D510000u,
  0x00580000u,
  0xE929F9FAu,
  0x4F004D33u,
  0x1B190100u,
  0x6E71004Eu,
  0x00008F00u,
  0xE800BD0Cu,
  0x0000006Bu,
  0xE8000000u,
  0x00670000u,
  0xE76E0000u,
  0x003B0000u,
  0x30000039u,
  0x3EAAFD35u,
  0x00000000u,
  0x001C00BFu,
  0x003E425Eu,
  0x00A30000u,
  0xE9002836u,
  0x0000B300u,
  0x3F199B00u,
  0x02000068u,
  0x15C79B00u,
  0xF40000DBu,
  0x00C04900u,
  0xEF560000u,
  0x006B008Bu,
  0x00A90000u,
  0x00000000u,
  0x00891CE2u,
  0x00000099u,
  0x5F00E947u,
  0x00004859u,
  0x0000ED15u,
  0x37000000u,
  0xF3003AF4u,
  0xBBCFBC4Fu,
  0x00009200u,
  0xCDC200B3u,
  0x00B60000u,
  0x00200000u,
  0x43AEE500u,
  0x550C0500u,
  0xB1D5F600u,
  0x0000C003u,
  0x47000000u,
  0xF13A00AAu,
  0xAF008D97u,
  0x00000000u,
  0xBC0000EDu,
  0x00B200D3u,
  0x008A0000u,
  0xD9C90000u,
  0x86A3F346u,
  0x00BC002Au,
  0x76C33193u,
  0xD8002C00u,
  0x009D0000u,
  0x006A0000u,
  0x2A3C0000u,
  0x20650608u,
  0xA14483DAu,
  0x490045A4u,
  0x00D679E6u,
  0x00B00000u,
  0x24000000u,
  0x0000F700u,
  0xB6CDD100u,
  0x0034D400u,
  0x000000C5u,
  0x51330000u,
  0x00D20000u,
  0x00350093u,
  0xBD868F20u,
  0x27100000u,
  0x035D007Bu,
  0x18D30800u,
  0x001000BCu,
  0x00006BA1u,
  0x0011009Du,
  0x830000AFu,
  0x00720000u,
  0x00633800u,
  0xC0010000u,
  0x00950000u,
  0x3C21A300u,
  0x00480000u,
  0x9400B500u,
  0x00C40000u,
  0x5200CB66u,
  0x47A0DD0Bu,
  0x00000000u,
  0x00F3DE2Fu,
  0x002E0000u,
  0xB8000026u,
  0x4FA44D00u,
  0x3B8090DEu,
  0x00F30000u,
  0xA6C68000u,
  0xDB000B00u,
  0xEFE37DAEu,
  0x0000E600u,
  0x3600E050u,
  0xE0338100u,
  0x0000FB24u,
  0xC600F000u,
  0x0000F5E5u,
  0x00353B00u,
  0x00F600F1u,
  0x00009700u,
  0x2200E4C7u,
  0x00EC9100u,
  0x9102009Du,
  0x003C0000u,
  0x0087F5D6u,
  0x0000B7D8u,
  0x00020000u,
  0xAD000000u,
  0x7A007514u,
  0xA2000000u,
  0xA4000043u,
  0x00790000u,
  0x5E95E5A5u,
  0x00AD0000u,
  0x00300000u,
  0x69006208u,
  0x00380000u,
  0x29000000u,
  0xAC4C0000u,
  0x00000068u,
  0x003000AEu,
  0x90841FB1u,
  0x00000000u,
  0x7CC37900u,
  0x00006300u,
  0x000034E3u,
  0x00000000u,
  0x0000D5BBu,
  0x005100E8u,
  0x7B000000u,
  0xCDA700B3u,
  0xEC150000u,
  0x630012A6u,
  0x2A000D00u,
  0x0000431Fu,
  0xE8009100u,
  0x00000000u,
  0x00BD00CFu,
  0x00DD0B9Du,
  0x00000000u,
  0xEC00DD34u,
  0x54A8F800u,
  0x00006900u,
  0x6E0000CDu,
  0x4F5A0000u,
  0x00AA63F2u,
  0x86000002u,
  0x8F003B86u,
  0x00000084u,
  0x9D471400u,
  0x0000AD00u,
  0x49C96100u,
  0x0000F700u,
  0x0000002Eu,
  0x000000D6u,
  0x1E000000u,
  0x1800001Fu,
  0xF4B1CD00u,
  0x0000BA65u,
  0xE90087B3u,
  0x00006B00u,
  0x0D28006Fu,
  0xC2000000u,
  0x2B000000u,
  0x00001A00u,
  0xF200E5AFu,
  0x004196D5u,
  0x003D0040u,
  0x0000008Cu,
  0xBD6400BCu,
  0x4B00DA00u,
  0xD2000000u,
  0x005D0000u,
  0x57007B00u,
  0x4D00C200u,
  0x0BC40000u,
  0x407AD500u,
  0x7F400000u,
  0x7700F580u,
  0x00630700u,
  0x0047E470u,
  0x2E00E92Eu,
  0x7D000000u,
  0x3300007Bu,
  0x200094B9u,
  0x0000AD00u,
  0x00F20000u,
  0x4E000000u,
  0x14007A00u,
  0x00000000u,
  0x46450098u,
  0x5E1D005Fu,
  0x97006E00u,
  0x280400E1u,
  0x64AC0000u,
  0x95CBA4C6u,
  0x000080FCu,
  0xD6009D76u,
  0x00C70000u,
  0x00480077u,
  0x3B6A541Eu,
  0x000B77CBu,
  0x00002F00u,
  0x63970000u,
  0x008D0063u,
  0x690000CBu,
  0x00008300u,
  0x009BFC00u,
  0x00570000u,
  0x5C6D8611u,
  0x00000000u,
  0x1D060000u,
  0x00443D00u,
  0x00B60000u,
  0x0000C700u,
  0x00E20000u,
  0x52000000u,
  0x009D0000u,
  0x00000046u,
  0x00004000u,
  0x00000000u,
  0x00E40000u,
  0x0000003Bu,
  0x340000A0u,
  0x8809A104u,
  0x760048C1u,
  0x15007E00u,
  0x44003B0Eu,
  0x89B90B00u,
  0x76000027u,
  0x00000089u,
  0x00DFC500u,
  0xD00D6A11u,
  0x1E6B004Fu,
  0x389D2612u,
  0x39CA0081u,
  0xA1910000u,
  0x0000ED97u,
  0x0000E6EEu,
  0x8DD5F0D2u,
  0x005FE465u,
  0x1B000000u,
  0x4B000000u,
  0xFF0F0072u,
  0x37000073u,
  0x442E0000u,
  0xFD8D00F0u,
  0x9A00B9D4u,
  0xB41FEE00u,
  0x00000000u,
  0x00000078u,
  0xC956A866u,
  0x00850000u,
  0x00F69100u,
  0x00000047u,
  0x0000A44Cu,
  0x0024C698u,
  0x8E00741Cu,
  0xCC122336u,
  0x004C1900u,
  0x23009776u,
  0x005C11C7u,
  0xFAD872BCu,
  0x219D0B9Fu,
  0x4917DC00u,
  0x91543D99u,
  0x0000D004u,
  0x30000000u,
  0x0000A886u,
  0x0000CC52u,
  0x00F80000u,
  0x02000000u,
  0xAA772900u,
  0x0000008Bu,
  0x006277C5u,
  0x87007000u,
  0x9000005Cu,
  0x0000000Au,
  0xDA000000u,
  0x75E7CF00u,
  0x00300000u,
  0x00990000u,
  0x00000000u,
  0x00000074u,
  0x55490000u,
  0x008E0000u,
  0xB38D0000u,
  0x00002300u,
  0x006B0000u,
  0x30C5C900u,
  0x42288100u,
  0x4EB53CBDu,
  0x00000000u,
  0xD8418CB7u,
  0x00009C12u,
  0xEA230020u,
  0x0000C5E3u,
  0x5300007Cu,
  0x03598053u,
  0x07005100u,
  0x00000000u,
  0x00CBFB2Bu,
  0x8F5D4B00u,
  0x5F2FC200u,
  0x831DBD00u,
  0x00767873u,
  0x00000075u,
  0xC40000E3u,
  0x6300C100u,
  0x00FA006Du,
  0x000000C2u,
  0x4375216Eu,
  0x008D0000u,
  0x8C000000u,
  0x00680000u,
  0x00000000u,
  0x098F00B3u,
  0x00E48700u,
  0x75000000u,
  0x00EACB00u,
  0x009C6D9Cu,
  0xD135E800u,
  0x00000D00u,
  0xDCA100AFu,
  0x0000BB00u,
  0x1EA82846u,
  0x003B6600u,
  0x134D0000u,
  0x8E0000A8u,
  0xDF1E2B00u,
  0x00C80000u,
  0x00009300u,
  0x4A93E500u,
  0x00004108u,
  0x497D00ADu,
  0x00000000u,
  0x00000049u,
  0x005B5400u,
  0xFC000000u,
  0x0000F332u,
  0xA9000055u,
  0x00001531u,
  0x00830068u,
  0x00DC0000u,
  0x4E00D400u,
  0x00009300u,
  0x000042A0u,
  0xFA94008Cu,
  0x00010000u,
  0x6D500007u,
  0x00C00000u,
  0x00490000u,
  0x00E83404u,
  0xB4004500u,
  0x007D0000u,
  0x1E000000u,
  0x00000000u,
  0x00100000u,
  0x1413005Du,
  0x5800BD1Bu,
  0x00008A54u,
  0x00490000u,
  0xFD51CE00u,
  0x00B7008Du,
  0x00000000u,
  0x008C790Du,
  0x28000000u,
  0x000028F6u,
  0xA58AA201u,
  0x3E000B4Cu,
  0x2800EF00u,
  0x009C79A3u,
  0x8A0000ACu,
  0xD2000100u,
  0x00EFEA75u,
  0x00004F00u,
  0x4E000000u,
  0x00000000u,
  0x009E3F87u,
  0xF6320900u,
  0x007F00F6u,
  0x00000066u,
  0x00000041u,
  0x8B00004Bu,
  0xB00000DCu,
  0x00EB00E7u,
  0x00DD0000u,
  0x87283900u,
  0x7E000000u,
  0x110073A0u,
  0x8D550000u,
  0x05000000u,
  0x75D164C5u,
  0x465A0000u,
  0x0000F300u,
  0xE7EF0000u,
  0x575300A7u,
  0x00CE00A0u,
  0xCDB4002Du,
  0x7F000000u,
  0x00000700u,
  0x00000000u,
  0x1E8AB95Bu,
  0xF7850000u,
  0x1644B400u,
  0x00AD257Au,
  0x00A08500u,
  0x00000000u,
  0x00610000u,
  0x050000B5u,
  0x31000000u,
  0x002F1600u,
  0x4D00CCB8u,
  0xE2020097u,
  0x0000DF00u,
  0x00005A00u,
  0x008D0049u,
  0x57C0005Eu,
  0x17D79500u,
  0x0B0000B1u,
  0xC31800CAu,
  0x0088E400u,
  0xE643EC99u,
  0x00009C00u,
  0x00008BD8u,
  0xA1000000u,
  0x00000040u,
  0x0000A780u,
  0x1E71CE00u,
  0x000F0000u,
  0x00B30045u,
  0x00FD0043u,
  0x42183500u,
  0x20000000u,
  0xE900FD00u,
  0x00000000u,
  0xAE750068u,
  0x00FCBE6Fu,
  0x0093002Fu,
  0x00002C00u,
  0x1F008F77u,
  0xF1000000u,
  0xE16B0825u,
  0x00000000u,
  0x00E60000u,
  0x2979E8F8u,
  0x0000C600u,
  0xED003100u,
  0x000000B6u,
  0x008B5700u,
  0x001DA724u,
  0x003D6CA6u,
  0xE0000000u,
  0x00892E00u,
  0x87000000u,
  0x9A687549u,
  0x000000F5u,
  0x3D00A048u,
  0x0000003Fu,
  0xCF030588u,
  0x94000048u,
  0x00000000u,
  0x00370000u,
  0x00007D00u,
  0x00280058u,
  0x00E80046u,
  0x8700007Fu,
  0xBF9D005Cu,
  0x008C0000u,
  0x0000B571u,
  0x00000000u,
  0x00B20097u,
  0x7F0000B2u,
  0x4C1C00FEu,
  0x00000000u,
  0x00D1C9A8u,
  0x72001232u,
  0x00EB0000u,
  0x00D80000u,
  0x050000B0u,
  0x00000000u,
  0x0000D400u,
  0x0000C900u,
  0x00A60038u,
  0xE396809Bu,
  0x6800E0DAu,
  0x00000200u,
  0x80CB6E00u,
  0x0072000Cu,
  0x2E270000u,
  0x0000DDADu,
  0xF2000000u,
  0x00000061u,
  0x0000CD00u,
  0xAAF60000u,
  0x000000ADu,
  0x6600A700u,
  0x8F33051Au,
  0xA8008239u,
  0xBF53F429u,
  0x6B008F00u,
  0xBA000000u,
  0x00001600u,
  0x05143700u,
  0x00002440u,
  0x60872E03u,
  0x002A89DDu,
  0xEC2C6000u,
  0x5C000000u,
  0x61A6C500u,
  0x8F00EA0Cu,
  0xFE030000u,
  0x00B00089u,
  0x0D00A700u,
  0x007600A7u,
  0x22000037u,
  0x00008C9Du,
  0x003124B6u,
  0x8F00F5BEu,
  0x8200556Eu,
  0xB6006717u,
  0x0000008Cu,
  0xF741AB00u,
  0x00000000u,
  0x148100EDu,
  0x0F000000u,
  0x004F196Eu,
  0x142F00E4u,
  0x51001B00u,
  0xCC0000DAu,
  0x0000D800u,
  0x001FD300u,
  0x00000000u,
  0x0D9D7900u,
  0x000000EBu,
  0xDAFE9FF2u,
  0x00A4008Au,
  0x545700A3u,
  0x000000ADu,
  0x2B00C200u,
  0x54000000u,
  0x00000095u,
  0x4B1F4100u,
  0x08180000u,
  0x01000000u,
  0x0C5F0057u,
  0x7E001B00u,
  0x2C000000u,
  0x00000086u,
  0x41000048u,
  0x7100001Au,
  0x01003400u,
  0xD402BEADu,
  0x00002363u,
  0x3F000000u,
  0xA500CB70u,
  0x00009C00u,
  0x00850000u,
  0x2D002180u,
  0x00B40000u,
  0xCB8E007Au,
  0x00843755u,
  0x11C10000u,
  0x0D005200u,
  0x00380000u,
  0x00000000u,
  0xF7005C00u,
  0x74000000u,
  0x00627700u,
  0x35FE0053u,
  0x88180000u,
  0x00257900u,
  0x0000008Fu,
  0x00B80000u,
  0xC592C900u,
  0x00242AFFu,
  0x43000013u,
  0x35000000u,
  0x00000000u,
  0x00EDE100u,
  0xF5000000u,
  0x00E90000u,
  0x4C008200u,
  0x004B6900u,
  0xD1850CA2u,
  0x003BAA76u,
  0x5E5B0019u,
  0x30B70000u,
  0x765A0000u,
  0x9FC3008Bu,
  0x00000000u,
  0x540000EFu,
  0x00A10000u,
  0x73DE005Bu,
  0x0000F900u,
  0x00F4D700u,
  0x009A0000u,
  0x00D80000u,
  0xF500070Du,
  0xB119A019u,
  0xC8AA0000u,
  0xDE550000u,
  0x0006008Au,
  0x0B00C100u,
  0xE400007Du,
  0x003C0000u,
  0x04000047u,
  0xE2007000u,
  0x320000CEu,
  0xC1D30000u,
  0x007E0000u,
  0x636D0000u,
  0x9BFC0000u,
  0xB30017E7u,
  0xA5000000u,
  0x00D90050u,
  0x545C0000u,
  0x00006FEFu,
  0x00000061u,
  0x00700000u,
  0x00525A00u,
  0x508A0000u,
  0x6D212000u,
  0x0100008Cu,
  0x27F90000u,
  0xA5004A00u,
  0xD500001Du,
  0xB5008B00u,
  0x00F5009Bu,
  0xB300CDF1u,
  0xD01C00B1u,
  0x1CE28C15u,
  0x00006032u,
  0x000B00CAu,
  0x006EAB00u,
  0x00004000u,
  0x000300BEu,
  0x00D64F00u,
  0x00000000u,
  0xF56C006Bu,
  0xE500C810u,
  0x005B8808u,
  0x00000000u,
  0x00000000u,
  0x00000000u,
  0x00000000u,
  0x58000000u,
  0x00C70067u,
  0x00E36C9Eu,
  0x44379800u,
  0x87004D00u,
  0x6B00E185u,
  0x00EB0071u,
  0x0000C20Bu,
  0x000000AAu,
  0x80000000u,
  0x651B8000u,
  0xD3AE3400u,
  0xA500884Eu,
  0x29000000u,
  0x160000EBu,
  0x0082D7A7u,
  0x0034FD00u,
  0x00000075u,
  0x000000C4u,
  0x1B243048u,
  0x40040000u,
  0x00003A00u,
  0x0030D5BAu,
  0x37000000u,
  0x5300FBA3u,
  0x00000074u,
  0x004A0000u,
  0xD7790000u,
  0x11000000u,
  0x6200BC72u,
  0x9400AA00u,
  0x003C0000u,
  0x8A000000u,
  0x64D541DDu,
  0x05BF4A00u,
  0x0000FE40u,
  0x00C1006Du,
  0x0023001Bu,
  0xAE0EE6D8u,
  0x00001C00u,
  0x00000000u,
  0x59000000u,
  0xE10000FBu,
  0x00001700u,
  0xF7007300u,
  0x990000A9u,
  0x008E0000u,
  0x0000BD00u,
  0x006C568Cu,
  0x00007B00u,
  0x0011001Bu,
  0x005EA700u,
  0x73360CAEu,
  0x87000034u,
  0x00000000u,
  0x5F180000u,
  0x000000E6u,
  0x6D000000u,
  0x73D0A72Cu,
  0x90BB2C00u,
  0xE8008E00u,
  0x10003D00u,
  0xE20081B8u,
  0x00921400u,
  0x00990000u,
  0x6249009Au,
  0x950014B4u,
  0x001D0000u,
  0x00000000u,
  0xC7BF0009u,
  0xBF005637u,
  0x37002100u,
  0x00930000u,
  0xBF0000CFu,
  0xFE00CE00u,
  0x00100000u,
  0x54DF006Du,
  0xD4000000u,
  0x2D4EF100u,
  0x00005193u,
  0x00000000u,
  0x37E80018u,
  0x00480000u,
  0x00009A00u,
  0x00493EE7u,
  0x00008900u,
  0x0000BE00u,
  0x0000D500u,
  0xCF000800u,
  0xB78E7300u,
  0xAE00C74Bu,
  0x87000000u,
  0x0000003Cu,
  0x00000000u,
  0x50466AAEu,
  0x63000000u,
  0x1F2D0100u,
  0x0019AB00u,
  0x8FA86600u,
  0x0026B874u,
  0x7C2C00F9u,
  0x00A4DA00u,
  0x00000096u,
  0x008C0081u,
  0x0075003Fu,
  0xEE00E5A1u,
  0x01000000u,
  0x0000E600u,
  0x4D003A00u,
  0x5FC200A4u,
  0x61C600F2u,
  0x00B5003Au,
  0x00000000u,
  0xE900DAC5u,
  0xCF85A200u,
  0x0074F200u,
  0x00C94873u,
  0x1D0000A8u,
  0x000000AAu,
  0x00300000u,
  0x000000BBu,
  0x00AB00C7u,
  0x00000000u,
  0x8B3D91DDu,
  0x3900002Bu,
  0x6900008Eu,
  0xB5007F00u,
  0x27000000u,
  0xC16A1800u,
  0x00A7D600u,
  0x00E00000u,
  0x699200E3u,
  0x97000000u,
  0x0000934Cu,
  0xA8000000u,
  0x0D008500u,
  0xC4E0585Cu,
  0xC9000087u,
  0x0DA10011u,
  0xB000C200u,
  0xED2D4200u,
  0x2F0065C5u,
  0x015C00F8u,
  0x000000FDu,
  0x005CE5ECu,
  0x00002D00u,
  0x365400F7u,
  0x00CB9500u,
  0x00008323u,
  0x7004BC70u,
  0x000000DFu,
  0x4E00751Cu,
  0xEB00007Eu,
  0x006D0000u,
  0x00A600A9u,
  0x98030009u,
  0xE0188000u,
  0xAA3B66DCu,
  0x00000000u,
  0x6B9B0000u,
  0xB900B1CFu,
  0x008CFCCEu,
  0x6A000000u,
  0x00007224u,
  0x3100006Bu,
  0x00DB00CCu,
  0xE100002Cu,
  0xB300FA3Fu,
  0x1900CD00u,
  0x0000F9B3u,
  0x190009C2u,
  0x0000E7B7u,
  0xA15251FAu,
  0x00AC0000u,
  0x00390000u,
  0x781F0000u,
  0x90EE7870u,
  0x00008D10u,
  0x00CE00A8u,
  0x152A0BB0u,
  0xE327A600u,
  0x0081006Cu,
  0x0000DE00u,
  0x00C50069u,
  0x00000052u,
  0x7D000000u,
  0x00409478u,
  0x71C95800u,
  0x25F81800u,
  0x9681A000u,
  0x6BF4596Bu,
  0x00000000u,
  0xCE00B600u,
  0xC100BD8Cu,
  0xCD007334u,
  0xC60000AAu,
  0x00008A00u,
  0x84000000u,
  0x007A0000u,
  0x005A0000u,
  0x2E72B986u,
  0x6FB35E51u,
  0x00004A00u,
  0x0000003Au,
  0x6200D7B1u,
  0xD5A20053u,
  0x39000079u,
  0x000000EFu,
  0xEB000000u,
  0x00000050u,
  0x86000000u,
  0xDA00F1DAu,
  0x9A00DF9Fu,
  0x00005500u,
  0x00BAEC00u,
  0x00000059u,
  0xAD5F00BCu,
  0x5A00353Bu,
  0x52004900u,
  0x00BF718Au,
  0xC90069E0u,
  0x0000EC59u,
  0x00000052u,
  0x9ADEDA00u,
  0xA100B500u,
  0x344C0000u,
  0x9B3AF53Fu,
  0x3C890000u,
  0x7800CD29u,
  0xA4000000u,
  0x00266800u,
  0x006E15CEu,
  0x00000000u,
  0xFC000067u,
  0xF9000000u,
  0x8E00EB60u,
  0x00F100B1u,
  0x00A70050u,
  0x00482AA7u,
  0x00000000u,
  0x3C000053u,
  0x288B7FB3u,
  0x00A20067u,
  0x0000F700u,
  0x7AEAFE00u,
  0x00000B00u,
  0x63008000u,
  0x64000000u,
  0xD3B3D300u,
  0x8E007000u,
  0x6C6B9B00u,
  0x0000CD00u,
  0x0000B500u,
  0x000000BFu,
  0x00008848u,
  0xB81A0060u,
  0x00000000u,
  0xE1000000u,
  0x0037006Au,
  0xAAC08400u,
  0x27344688u,
  0x4DA40000u,
  0x00000000u,
  0x00000000u,
  0x000037FEu,
  0x2A000000u,
  0x008F9973u,
  0x00EB8579u,
  0x1B002C00u,
  0x00E900FFu,
  0x00000000u,
  0x00000061u,
  0x00A50000u,
  0x00D20000u,
  0x8F000000u,
  0x8401A7C5u,
  0x15002850u,
  0x00939700u,
  0xCB496600u,
  0x105DB700u,
  0x6900A200u,
  0x564D0083u,
  0x50910075u,
  0xA9000000u,
  0x2D7F6364u,
  0x00000000u,
  0x8E400000u,
  0x80001B00u,
  0x00D0002Au,
  0xFC15ABD2u,
  0x00000095u,
  0x300000D4u,
  0x0012108Au,
  0x1F34ED70u,
  0x681A9493u,
  0x17000000u,
  0x008433B0u,
  0x290000E7u,
  0x217B747Eu,
  0x00FB2900u,
  0x00000000u,
  0x0000A6BBu,
  0x0000006Au,
  0x00000000u,
  0xD0030BDAu,
  0x00000000u,
  0x00C00059u,
  0x00ED0000u,
  0x0000007Bu,
  0x55007770u,
  0x0029A700u,
  0x00560000u,
  0x00000000u,
  0x63000000u,
  0xEB00F846u,
  0x75000000u,
  0x0900E58Bu,
  0x000A0000u,
  0x68BFF000u,
  0x00E60000u,
  0xC2D8008Cu,
  0x00000000u,
  0x6F000000u,
  0x9100E800u,
  0x00F90000u,
  0x00F89F2Du,
  0x006D1F8Fu,
  0x00DE7E00u,
  0xA2000000u,
  0x2800005Cu,
  0x0070A263u,
  0x92000092u,
  0x0D00FA00u,
  0x7F000000u,
  0xB05E0000u,
  0x0000A06Fu,
  0x4C5E0000u,
  0x00000C00u,
  0xC000000Cu,
  0xFB899800u,
  0x00000000u,
  0x000000E6u,
  0xFE4B0000u,
  0x987F0000u,
  0x003C8300u,
  0x00000069u,
  0x007B1800u,
  0x00000094u,
  0x08000000u,
  0xDF000003u,
  0x009A6DA3u,
  0x0000002Cu,
  0x1A000056u,
  0x11A88E00u,
  0x00000086u,
  0x00120072u,
  0x00000000u,
  0x003D0000u,
  0x99000A68u,
  0x84D800BAu,
  0x3B00AD00u,
  0x740001F2u,
  0x00006E00u,
  0x51000006u,
  0x1D008500u,
  0x297C6100u,
  0xF3947800u,
  0x008900C2u,
  0x0000AA00u,
  0x9320651Fu,
  0x3C180000u,
  0x00550000u,
  0x0000D500u,
  0xB1DC9400u,
  0x2F7C0000u,
  0xF3580036u,
  0xD57E2500u,
  0xF7000000u,
  0x00000000u,
  0x000000C7u,
  0x00871078u,
  0xB92300E2u,
  0x0000E900u,
  0x00F4003Bu,
  0x5F980D00u,
  0x00F18300u,
  0x0000B000u,
  0x00BB3300u,
  0x28ED003Cu,
  0x3E49473Du,
  0x00640000u,
  0x009F2E7Eu,
  0x00940079u,
  0xDCB100A2u,
  0x400C00F5u,
  0x00004700u,
  0x007A0000u,
  0x6900147Du,
  0x00000000u,
  0x00000000u,
  0x00E10000u,
  0x00000000u,
  0xE8EAD300u,
  0x0000BE8Eu,
  0x00000000u,
  0x0000358Du,
  0x00000000u,
  0x008C18D7u,
  0x00010000u,
  0x00000007u,
  0x19F16800u,
  0x5A194ADFu,
  0x00779B6Eu,
  0xEF000099u,
  0x00D80084u,
  0x0061F300u,
  0x27B90000u,
  0x00FD006Fu,
  0x00000000u,
  0xA0000000u,
  0x3C910000u,
  0x21740000u,
  0x479500D0u,
  0x3F008700u,
  0x0000AF00u,
  0x00490580u,
  0x51000158u,
  0x003FC05Au,
  0x3F61B158u,
  0x00000000u,
  0x170000E3u,
  0xED50DF9Au,
  0x00CDD8C6u,
  0xA400004Bu,
  0x00003200u,
  0x0000EF00u,
  0x006DBDAFu,
  0x00540000u,
  0x15028D00u,
  0x50D30051u,
  0x0000E393u,
  0xDE002E82u,
  0x000000C9u,
  0x00003B00u,
  0x00ECF700u,
  0x00000098u,
  0x00A73800u,
  0x632C4EA5u,
  0xE2000000u,
  0x00CB0000u,
  0x00000000u,
  0x00004CC0u,
  0xA300A200u,
  0x00F200B9u,
  0xA11AFA8Fu,
  0xF2440098u,
  0x5100D000u,
  0xD48A00A2u,
  0xC0000000u,
  0x000000DDu,
  0x0000C323u,
  0xB6007C8Eu,
  0x670000DDu,
  0xE90000D2u,
  0x001BE800u,
  0x90D7A000u,
  0x3C0B006Eu,
  0x000C0000u,
  0x46000000u,
  0x00000000u,
  0x003E6500u,
  0x00734D00u,
  0x001C04D9u,
  0x00E300F5u,
  0x00F7C434u,
  0x45000000u,
  0x0000007Eu,
  0x0000C2CDu,
  0x10008700u,
  0x00000000u,
  0xF7D40000u,
  0x00AA003Fu,
  0x004B3946u,
  0xCED1D17Eu,
  0x6F900000u,
  0x8F000000u,
  0xBC090000u,
  0xAE000000u,
  0xF801BF00u,
  0x8A000000u,
  0x83764816u,
  0x00000000u,
  0x25CB00D6u,
  0x1F070073u,
  0x00009500u,
  0x0000000Cu,
  0x1E006181u,
  0xA5000000u,
  0x00003300u,
  0x080000BCu,
  0x00000000u,
  0xE88000E0u,
  0x00000000u,
  0x03000000u,
  0xA4440000u,
  0x970B00EDu,
  0x006E97A1u,
  0xA8C30000u,
  0xE84D003Au,
  0x0A00102Fu,
  0xBC0000BEu,
  0x00180042u,
  0xB0D67500u,
  0xBF006700u,
  0x5CAA1418u,
  0x003E0000u,
  0xB7874A00u,
  0x00000000u,
  0x00005D00u,
  0x50BE3776u,
  0x0070F136u,
  0xDAB372B8u,
  0x00880005u,
  0xED065700u,
  0x60079E00u,
  0x2000A4CCu,
  0x9700EA00u,
  0xA6900000u,
  0x00A20000u,
  0xB72300EAu,
  0x54843600u,
  0xF70081B2u,
  0x0053C700u,
  0x00F5590Cu,
  0x0742F900u,
  0x3E00F6F5u,
  0x00000000u,
  0x00003E70u,
  0x00000000u,
  0x000F008Bu,
  0x0000C349u,
  0x00000D41u,
  0x0000006Du,
  0x00000093u,
  0x00AD0000u,
  0x00600000u,
  0x00000000u,
  0x00C03700u,
  0x00F3FA38u,
  0x00000000u,
  0xA83F98F3u,
  0x00000000u,
  0x00000000u,
  0x1C00004Du,
  0xEC0000FDu,
  0x87000000u,
  0x74F28C95u,
  0x7D004A78u,
  0x003500D9u,
  0x9F2C4C00u,
  0xCD0000A2u,
  0x00FE0700u,
  0xD40047A3u,
  0x00004900u,
  0x00AC9C73u,
  0x7F009700u,
  0x004700F3u,
  0x9E930000u,
  0xB7022AC5u,
  0x05003900u,
  0x0000E3DDu,
  0x00D12461u,
  0x000000BAu,
  0x00560011u,
  0xCC00E200u,
  0x00000000u,
  0x00010000u,
  0x00340000u,
  0xD000BE00u,
  0x979D0000u,
  0xEF000001u,
  0x81000000u,
  0xF9000000u,
  0x24F30000u,
  0x00CC0000u,
  0x87003AC8u,
  0x20030026u,
  0x007AD0DEu,
  0x315D0000u,
  0x00000000u,
  0x008900EFu,
  0x0059D500u,
  0x35001200u,
  0x00002800u,
  0x89B900EBu,
  0x8B0000BBu,
  0x00000000u,
  0x00000000u,
  0x00C00D08u,
  0x0087CD0Cu,
  0x6BCD470Bu,
  0x22F3C7EEu,
  0x0000004Du,
  0x00000000u,
  0xD7EED600u,
  0x2A5A0000u,
  0x00005100u,
  0xA6FE5B00u,
  0x67008861u,
  0x00000000u,
  0x1D000000u,
  0x00CB0000u,
  0x00A1C214u,
  0x0900C145u,
  0x0000D200u,
  0x0000006Du,
  0x2451F808u,
  0xF485998Eu,
  0x00560049u,
  0x007E004Bu,
  0xBC560000u,
  0x570A0E1Au,
  0x0000C495u,
  0x00000310u,
  0x00004C00u,
  0x43003215u,
  0x7EADDC72u,
  0x2D6A22A9u,
  0x0000009Fu,
  0xB7001152u,
  0x0000001Eu,
  0x0000EE16u,
  0x00E1000Eu,
  0x6C6A2DA5u,
  0xC8B50000u,
  0x000051E8u,
  0xB3004300u,
  0xEC003A00u,
  0x002BD4BDu,
  0x00F4D800u,
  0x00DF0000u,
  0x00009BD2u,
  0x00000000u,
  0x7400EA8Bu,
  0xFB000000u,
  0xD2006D00u,
  0x00270000u,
  0x008B0016u,
  0x00D60000u,
  0x00EF0000u,
  0x660092FFu,
  0x777ABC00u,
  0xE931C500u,
  0x00005402u,
  0x006700AEu,
  0x00000077u,
  0x00008CACu,
  0xB7807E00u,
  0x73E40011u,
  0x2C00C700u,
  0xF3E1006Eu,
  0x00003600u,
  0x00003700u,
  0x00000306u,
  0x00EA0000u,
  0x00003DDBu,
  0x00000000u,
  0x00310000u,
  0x000000D6u,
  0x75001600u,
  0x00848400u,
  0x00112800u,
  0x003A00FBu,
  0x0078D000u,
  0x00001700u,
  0x0000EE00u,
  0x00008200u,
  0x2C000046u,
  0x0000252Cu,
  0x00000004u,
  0x005ED400u,
  0xCAAB8600u,
  0x004E002Eu,
  0x00E2443Cu,
  0x3400E100u,
  0x0003D200u,
  0xD8BB0000u,
  0x0000D037u,
  0x5D005C90u,
  0x0000B900u,
  0xD60C00FBu,
  0x2D009684u,
  0x00D4E300u,
  0x00A5FFD8u,
  0x00000082u,
  0x00B6C600u,
  0x00F4003Au,
  0xFD00F100u,
  0xBB000000u,
  0x0A000000u,
  0x00C20000u,
  0x00001C00u,
  0xB3570000u,
  0x00000000u,
  0xEF0000A2u,
  0x18BD0000u,
  0xA3000000u,
  0xF800C100u,
  0x0000E8E1u,
  0xBE765DD4u,
  0x0000E000u,
  0x00E0F400u,
  0x00900300u,
  0x36460000u,
  0x00F14FD2u,
  0x00000C00u,
  0x000000A6u,
  0xF569000Au,
  0x901CF100u,
  0x0081AE2Cu,
  0x4300E200u,
  0x00007800u,
  0x00000000u,
  0x00000000u,
  0x9E003E00u,
  0x00000050u,
  0x00C90000u,
  0x00D9E414u,
  0x00000000u,
  0x00EC0000u,
  0x00120000u,
  0x2E690000u,
  0x0554DF00u,
  0x208F5A00u,
  0x0000F7C9u,
  0x43000000u,
  0x96DEB363u,
  0x6D00D867u,
  0x000000E6u,
  0x80004D00u,
  0xB500EDEAu,
  0x0000DCEFu,
  0x6400CDF8u,
  0x0870910Au,
  0x050012F3u,
  0x00000000u,
  0xA0004100u,
  0x5E00009Eu,
  0x0000008Cu,
  0x00008C26u,
  0x00DCC500u,
  0x83B1004Au,
  0x00000000u,
  0x00000056u,
  0x26EA8A00u,
  0x84000000u,
  0x003FB900u,
  0x12000032u,
  0x056F0000u,
  0x00000043u,
  0x6C408D57u,
  0x87F9006Fu,
  0xB400E33Au,
  0x64160041u,
  0x9C650054u,
  0x3556C14Cu,
  0x00008000u,
  0x6800AA3Du,
  0x12009077u,
  0xCC009F62u,
  0x78A50000u,
  0x00000000u,
  0x00005100u,
  0x00000000u,
  0xA0D2DF00u,
  0xBE0000B9u,
  0x00000000u,
  0x00007800u,
  0x0087BA00u,
  0x64003500u,
  0x00000000u,
  0xC8000500u,
  0x002E0000u,
  0x16000003u,
  0x6A000200u,
  0x00D29B8Cu,
  0x00000000u,
  0x5C000000u,
  0xB5000000u,
  0x0B000000u,
  0x00005700u,
  0x6D00D71Au,
  0x00CDFADEu,
  0x94CD9597u,
  0x000000CAu,
  0x00000000u,
  0x00001900u,
  0xA5AB0090u,
  0x00009A00u,
  0xE30200D7u,
  0x000072ADu,
  0x0003A969u,
  0x9E0000EDu,
  0x00C60000u,
  0xE7C90009u,
  0x00FD9B00u,
  0x000B0000u,
  0xE3000000u,
  0x0000370Eu,
  0x00FCF600u,
  0x00EDAD00u,
  0x07CCAD00u,
  0x170025EEu,
  0x00C89700u,
  0xA0A486D8u,
  0x0041A2E3u,
  0x00160000u,
  0xD800C900u,
  0x2EC9C900u,
  0x00000000u,
  0x2E0CB700u,
  0x0000F729u,
  0x003B0000u,
  0x0000F700u,
  0x00003900u,
  0x00000002u,
  0x000000E4u,
  0xFA000040u,
  0x1AD70002u,
  0x73008640u,
  0x000000FEu,
  0x660025AEu,
  0x00CC0000u,
  0x6B9F2100u,
  0x113C0000u,
  0x00ED099Du,
  0x00F30045u,
  0x00000000u,
  0x00009C00u,
  0xE2F400A5u,
  0xD556CEC4u,
  0x80370005u,
  0x1A00D800u,
  0x000B00DFu,
  0x360000ADu,
  0x007D0029u,
  0x010000C5u,
  0xC5000000u,
  0x00AE0000u,
  0x00770000u,
  0x828C7600u,
  0x005A38CAu,
  0x0C007300u,
  0x0047008Au,
  0x000000F8u,
  0x89B80062u,
  0x3D000000u,
  0x00001700u,
  0x0000D747u,
  0xFCCA2E51u,
  0xDF7A0054u,
  0x000000D1u,
  0xAA320074u,
  0xF4000A6Bu,
  0x000000FAu,
  0x32000000u,
  0x9C000000u,
  0xFB28AB00u,
  0x00000000u,
  0x005EC900u,
  0xBA571C00u,
  0xE9C66B82u,
  0x004CF900u,
  0x276500DAu,
  0x61A90000u,
  0x24000000u,
  0x000000E6u,
  0x00B2FBB4u,
  0xE20000E0u,
  0x03530A00u,
  0x002A4F74u,
  0xC7000065u,
  0x2B006400u,
  0x670043B2u,
  0xC4000B67u,
  0x6F00FA00u,
  0xC100A640u,
  0x3B000000u,
  0x002729AAu,
  0xA3000000u,
  0x10000000u,
  0x00000000u,
  0xD67C00EBu,
  0xB3000000u,
  0xA08D2000u,
  0x67FA0000u,
  0x2C6BF700u,
  0x00D70000u,
  0x0E006E00u,
  0x16002900u,
  0x930000E8u,
  0x00D90000u,
  0x00B1BFC0u,
  0x485C0097u,
  0x00000000u,
  0x000007FDu,
  0x79A40000u,
  0x000007FCu,
  0x380000EEu,
  0x00000018u,
  0x0000EC00u,
  0xDBB58CEEu,
  0x005E00BAu,
  0xA800086Eu,
  0x955DCD00u,
  0x005A0040u,
  0x00001FC5u,
  0x68000026u,
  0x0000002Cu,
  0xAD000033u,
  0xCF2C0000u,
  0x008D0000u,
  0x00000000u,
  0x009DFD00u,
  0x00B100B8u,
  0x8F856E00u,
  0x00AC0000u,
  0x51000000u,
  0x00540000u,
  0x00B10000u,
  0x00000000u,
  0x00256A00u,
  0x003B8700u,
  0xE000A43Bu,
  0x00C70000u,
  0x00000000u,
  0xD60DFF95u,
  0x9800004Cu,
  0x49292300u,
  0x9D786400u,
  0x00CE002Cu,
  0xA8C271E1u,
  0x610A00F3u,
  0xE0150000u,
  0x7A1E0000u,
  0x67009B60u,
  0x00FB0000u,
  0x03000000u,
  0x80000000u,
  0x701E4800u,
  0x00AB00F5u,
  0x0200BADBu,
  0x000F040Du,
  0x65000000u,
  0x0000B200u,
  0x001B8D00u,
  0x00B50033u,
  0x00000000u,
  0x000000ADu,
  0x00071A8Cu,
  0x3A4B7700u,
  0x47750632u,
  0x00C05B00u,
  0xE1004900u,
  0x2F3D190Bu,
  0x00007826u,
  0x00007100u,
  0x00067C3Du,
  0x00879214u,
  0x6E860000u,
  0xBBE40000u,
  0x00008B3Eu,
  0x00000039u,
  0x9200000Au,
  0xDD930057u,
  0x86250000u,
  0xCD600000u,
  0x00160000u,
  0x0B3D0000u,
  0xC6001EC4u,
  0x00000000u,
  0xD9000000u,
  0x929D007Cu,
  0x1C55F862u,
  0x0000001Au,
  0xEC006C00u,
  0xB20074EEu,
  0x00CE0000u,
  0x65003700u,
  0x53600000u,
  0x6B000000u,
  0x004C0000u,
  0x00000088u,
  0x009F0BC1u,
  0x00B60000u,
  0x3E85056Du,
  0x00000000u,
  0x0A9B00A3u,
  0x8B000BD9u,
  0x00E41A00u,
  0x7D7DEC5Cu,
  0x000000EAu,
  0x000000F8u,
  0x0000AF00u,
  0x0000DBB5u,
  0x000000E5u,
  0xF3654B00u,
  0x00000000u,
  0x005D7200u,
  0x000807C1u,
  0x00AC0000u,
  0x000000A2u,
  0x17160000u,
  0x00000000u,
  0x00000000u,
  0x2A0000ECu,
  0x180077D7u,
  0x00A60000u,
  0x0000F400u,
  0x420000A6u,
  0xC5000043u,
  0x000000B4u,
  0x3600005Eu,
  0x0000005Eu,
  0x00420000u,
  0x00C08235u,
  0x00F2C20Eu,
  0x2E00EB75u,
  0x2700F278u,
  0x0016D954u,
  0x0000004Bu,
  0x00000000u,
  0xC0A70098u,
  0x26002000u,
  0x4F00C500u,
  0x000044EDu,
  0x00810000u,
  0x00003FEAu,
  0xB72D004Du,
  0x00006000u,
  0xF30000E6u,
  0x005F00EDu,
  0xDF0008DAu,
  0x00000600u,
  0x11000003u,
  0x0000A400u,
  0x00F73CF7u,
  0x00D90000u,
  0x00A5008Au,
  0xB000D700u,
  0x000000ECu,
  0xB30000BDu,
  0x83A0009Cu,
  0x2900A700u,
  0x5C8000B1u,
  0xF8450058u,
  0x00D047E9u,
  0x0000009Au,
  0x4FF95D78u,
  0x002E8600u,
  0x476A3A3Eu,
  0x000000AAu,
  0x00EA7A13u,
  0x3A00AF00u,
  0x00D7000Au,
  0x7900A5D3u,
  0x00C72092u,
  0x00ED00CBu,
  0x1200CBBAu,
  0x00000000u,
  0x6A8D54EFu,
  0x00000000u,
  0x8BF9B960u,
  0x18005600u,
  0x00003D1Eu,
  0x00000014u,
  0x00003100u,
  0x2BC90000u,
  0xC6DE0000u,
  0x00707500u,
  0xA7002500u,
  0x46C70045u,
  0x00C8F323u,
  0x00000000u,
  0x00DD0066u,
  0x46A9E686u,
  0xAD00BEA6u,
  0x000FEA00u,
  0xA7000000u,
  0x00000000u,
  0x0021BC00u,
  0x108BB200u,
  0xA5000600u,
  0x007F0000u,
  0x00B00000u,
  0xB1003D00u,
  0xDD810000u,
  0x0041FB37u,
  0x84003400u,
  0x12009652u,
  0x0034D5EBu,
  0x3CA1070Bu,
  0xF1000000u,
  0x00B40000u,
  0x00A400A1u,
  0x006F0000u,
  0x003B0000u,
  0x000013EFu,
  0x5C53D500u,
  0x00B100EAu,
  0x7E6BB500u,
  0x6FEA00D7u,
  0x000083E0u,
  0x43C50700u,
  0xC500005Du,
  0xA9004C00u,
  0x60008659u,
  0x83DB0000u,
  0x0000A4B0u,
  0x00008E91u,
  0x00000096u,
  0x005F0000u,
  0x00000007u,
  0x00000033u,
  0x96000000u,
  0xEF00006Du,
  0x00550000u,
  0x01000059u,
  0x00007700u,
  0x00FE0035u,
  0x00730000u,
  0x00000000u,
  0x00006500u,
  0x001E40B1u,
  0x00000034u,
  0x14000059u,
  0x00A20100u,
  0x00B500A0u,
  0x00F16233u,
  0x005B4349u,
  0x00E50000u,
  0x94000000u,
  0x005B9031u,
  0x72000043u,
  0xB800B800u,
  0x47008500u,
  0x0000CF00u,
  0x00AE006Fu,
  0x00000000u,
  0x77002200u,
  0x008C1BF8u,
  0xBA0A0004u,
  0x00AF0000u,
  0x345400EDu,
  0x00BB9B00u,
  0x00F97DF3u,
  0x001E0000u,
  0x0000C7E0u,
  0x0090FD00u,
  0x007800D1u,
  0x00D5E6B4u,
  0x0600009Bu,
  0x00002C00u,
  0x00E50000u,
  0x005B008Cu,
  0x68000000u,
  0xF7810000u,
  0x66000000u,
  0xFB000000u,
  0x8F3B0000u,
  0x5B8900B5u,
  0x00004D00u,
  0x00140000u,
  0x2CF63881u,
  0x7EDBEED8u,
  0x0000B500u,
  0x0063000Fu,
  0x0034D900u,
  0x0000B519u,
  0x00009225u,
  0xB5557B00u,
  0x00C80000u,
  0x0000EC00u,
  0x0000B700u,
  0x009A0013u,
  0xFD0000A6u,
  0x00290000u,
  0x00000000u,
  0x007D6C00u,
  0xF1180000u,
  0x00B20000u,
  0xF3000086u,
  0x0F7B00D5u,
  0x3D6EBB00u,
  0x00530000u,
  0x006AB300u,
  0x000055DEu,
  0xD6C20000u,
  0x009B0026u,
  0x000034CCu,
  0x9F00008Fu,
  0xCA00F7F4u,
  0x3C860033u,
  0x90004F00u,
  0x00448900u,
  0xE5ED8700u,
  0x7FB00064u,
  0x8EB66C8Bu,
  0x00F5EE00u,
  0x09000058u,
  0xD698B9BBu,
  0x0000002Fu,
  0x00000800u,
  0x76001900u,
  0x000000F3u,
  0x00000034u,
  0x0000C870u,
  0x003CE03Cu,
  0x9000E000u,
  0x0097AA00u,
  0x00002958u,
  0x00FC0045u,
  0x8F004057u,
  0x00980000u,
  0x0073B700u,
  0x00220000u,
  0x008E0000u,
  0xB9000062u,
  0x00430000u,
  0x0B002900u,
  0xE1000000u,
  0x00D5002Cu,
  0xCD008D00u,
  0x000E18E7u,
  0x00000000u,
  0x5A005A3Fu,
  0x00AF53FDu,
  0x6F8B0040u,
  0x00DB3800u,
  0xD5EBD2BAu,
  0x03000066u,
  0x0000E800u,
  0x35005EEFu,
  0x00590000u,
  0x003A0000u,
  0x00000072u,
  0x4C000000u,
  0x0000A100u,
  0x00540000u,
  0xC46EE100u,
  0xC4830000u,
  0x006F3000u,
  0x57920000u,
  0x0A6500FAu,
  0x00458B18u,
  0xA2001CC6u,
  0x80004700u,
  0x00000000u,
  0x42760800u,
  0x00E80000u,
  0x6E000077u,
  0x258CF9A9u,
  0xE8086850u,
  0x9600B55Eu,
  0x9600002Fu,
  0x50004F00u,
  0x6E005500u,
  0x000000B1u,
  0x004645E1u,
  0x054B0000u,
  0xD90000BEu,
  0xF918F700u,
  0x0000900Bu,
  0x00BB00B5u,
  0x23000072u,
  0xB91D2900u,
  0x29000054u,
  0x008400D1u,
  0x68497400u,
  0x00376E00u,
  0x00B20000u,
  0x00FC66FEu,
  0x00000000u,
  0x4D7A0000u,
  0x5D000000u,
  0x69005400u,
  0x32649227u,
  0x00001300u,
  0xC0002E80u,
  0x69001C2Cu,
  0xA0000004u,
  0x68EC9B00u,
  0x0F000000u,
  0xCB3C7C00u,
  0x008B9C73u,
  0xF9BE0100u,
  0x0090EF81u,
  0x8A00D600u,
  0x1C00008Du,
  0x760037FDu,
  0x00C804EFu,
  0x0000BB00u,
  0x985EE100u,
  0x9B35000Fu,
  0x00000000u,
  0xFD0000ADu,
  0x00008B00u,
  0x00528C77u,
  0x0000D300u,
  0x0000C87Eu,
  0xB2F679B2u,
  0x29B60000u,
  0xD000C400u,
  0x000000E8u,
  0xB3000000u,
  0x00800000u,
  0x3A000000u,
  0xB9CB0000u,
  0x68000000u,
  0x3E001200u,
  0x5000DF00u,
  0xABBC0000u,
  0x0000A9FEu,
  0x057F0000u,
  0x0000D800u,
  0x16737AE8u,
  0x57000000u,
  0x00A0004Eu,
  0x5300B1F8u,
  0x00540000u,
  0x000000F0u,
  0x00005150u,
  0x00000000u,
  0x004C4700u,
  0x00AC412Eu,
  0x00000064u,
  0xC1007C43u,
  0xBFEF0077u,
  0x9A00F600u,
  0x1B670000u,
  0x00000000u,
  0x3000E6ECu,
  0x4E947900u,
  0x41000032u,
  0x8F0000C0u,
  0x000000D2u,
  0x06000000u,
  0x00000000u,
  0x72009100u,
  0xEFA3C800u,
  0xB87A0052u,
  0x277D006Eu,
  0xEF007C00u,
  0x00000F45u,
  0x60009300u,
  0xAA620043u,
  0x00000066u,
  0x00000000u,
  0x00750000u,
  0x00003E00u,
  0x00951B83u,
  0x0000B700u,
  0x002C853Cu,
  0x00F40000u,
  0xB3000000u,
  0xF4840055u,
  0x008E00AEu,
  0x960033ADu,
  0x5200B600u,
  0x00970000u,
  0x00002B00u,
  0x219E0024u,
  0x00000093u,
  0x00082900u,
  0x00A5BB96u,
  0xED000000u,
  0x47000000u,
  0x00C0001Cu,
  0x00000000u,
  0x7C0000AAu,
  0x0092E122u,
  0xD60C005Fu,
  0x18000000u,
  0x00F10080u,
  0x007B009Du,
  0x0900002Au,
  0x00C40000u,
  0x0000EC98u,
  0xBDF80000u,
  0x000000AAu,
  0x000000BCu,
  0x5F927700u,
  0x677CFF00u,
  0xF0FD7600u,
  0x350000E5u,
  0x863A0000u,
  0xAD00000Eu,
  0x00000091u,
  0x005B0000u,
  0x48000000u,
  0xAB007F00u,
  0x9470FC83u,
  0x00D50000u,
  0x00E00500u,
  0xA5150039u,
  0xFE000000u,
  0x00008196u,
  0x956A0000u,
  0xCB00F800u,
  0x00000077u,
  0x000000BAu,
  0x15A53000u,
  0x00000000u,
  0x7D00DC00u,
  0x2E77E800u,
  0x000000D2u,
  0x005D0081u,
  0x85DF00C4u,
  0xDCB92E00u,
  0x458ABE4Cu,
  0xBE00DB00u,
  0x47009400u,
  0x812A0000u,
  0x001B0800u,
  0x00600021u,
  0x294B00CDu,
  0xAACA4DF9u,
  0xA9C40000u,
  0x00A6005Cu,
  0x00990000u,
  0xC6006100u,
  0x8F008100u,
  0x00FF0000u,
  0xC9A49600u,
  0x00CA2300u,
  0x5EB30895u,
  0x00002C00u,
  0x00000011u,
  0xD5000000u,
  0xF9600000u,
  0x0000ECA7u,
  0x0000D700u,
  0x005E006Bu,
  0x0000FBBBu,
  0x00008F00u,
  0x0F004581u,
  0x00AB0053u,
  0x6F110000u,
  0x00F20029u,
  0x63000000u,
  0x2B5A00F6u,
  0xB1008700u,
  0x7B008000u,
  0x006D0000u,
  0x00C5002Eu,
  0x1900449Bu,
  0xF7000076u,
  0x00000097u,
  0x4E7700D1u,
  0x00000007u,
  0x00000000u,
  0x00E10069u,
  0xDA176F00u,
  0x0834A195u,
  0x020B9E00u,
  0x1F00AE00u,
  0x00503700u,
  0x000000C1u,
  0x00000075u,
  0x00F7FD00u,
  0x00000037u,
  0x3500CB13u,
  0x92610000u,
  0x000000A8u,
  0x54000000u,
  0x6F00EA28u,
  0x0D000000u,
  0x00BA6500u,
  0x2F000000u,
  0x62000000u,
  0x003E0000u,
  0x00006900u,
  0x00001AEAu,
  0x120080F4u,
  0x86004200u,
  0x000000A2u,
  0x00001539u,
  0xC3040000u,
  0x9A0077DDu,
  0x9100BF53u,
  0x954F3900u,
  0x2D000020u,
  0x94680000u,
  0x000057D1u,
  0x8DE01900u,
  0x0000A100u,
  0xE5BCAD00u,
  0x00003C15u,
  0x8500CA00u,
  0x27188300u,
  0x0000001Fu,
  0x00001E00u,
  0x9200008Fu,
  0x19609E00u,
  0x00000000u,
  0xCF000000u,
  0x323D0000u,
  0xD48AB3A7u,
  0x00B20086u,
  0x0000965Cu,
  0x00000083u,
  0x2F9C0000u,
  0x000000D0u,
  0x172D0000u,
  0x0000006Bu,
  0xCD000000u,
  0x4CC70014u,
  0xA2100000u,
  0x00660000u,
  0x62910000u,
  0x00216A00u,
  0x0B000000u,
  0x158C0D00u,
  0x0001DC59u,
  0x00683400u,
  0x00000000u,
  0x006300F5u,
  0x0000A000u,
  0xF500B5B8u,
  0x874A0077u,
  0xA46E8200u,
  0x00D90063u,
  0x2A280000u,
  0x7200EED7u,
  0x16001DBCu,
  0x72B6E800u,
  0xF6009E62u,
  0xB100D400u,
  0x00000000u,
  0x00DEEC00u,
  0x001E00E5u,
  0x00006CFCu,
  0xCE1A0004u,
  0xADDB00EDu,
  0x005E0000u,
  0x3557B200u,
  0xCC28CB3Bu,
  0x00003273u,
  0x2370DF00u,
  0x7300B300u,
  0x000083B6u,
  0xB3000000u,
  0x56008600u,
  0x00002500u,
  0x42000000u,
  0x0051006Au,
  0x000057CFu,
  0x004E6C00u,
  0x0000001Bu,
  0x00110000u,
  0xC7999865u,
  0x674CD900u,
  0x0682FD38u,
  0x3348CF1Cu,
  0x000000EBu,
  0x00000000u,
  0xFC9EFBD7u,
  0x940041C9u,
  0x98000000u,
  0x18006A00u,
  0x00F20006u,
  0x18000000u,
  0xC300A04Du,
  0x00BF0014u,
  0x5C002A3Cu,
  0x8D6D7A00u,
  0x00000000u,
  0x00000000u,
  0x0000EC3Bu,
  0x000000EBu,
  0x0020F500u,
  0x000900A0u,
  0x000021D4u,
  0x2700F600u,
  0x00BD0000u,
  0x4E00DA00u,
  0x0000006Fu,
  0x0000006Cu,
  0xB0000000u,
  0x00000000u,
  0x00C80000u,
  0x004B5000u,
  0xDF000000u,
  0x0000A891u,
  0x00B91600u,
  0x39005ABBu,
  0xE1EDED1Bu,
  0x00890000u,
  0x30000075u,
  0x00000013u,
  0x00E79800u,
  0xCB000000u,
  0x008A00C7u,
  0xC7740000u,
  0x00D10000u,
  0xD592001Cu,
  0x00070025u,
  0x005EE900u,
  0x00BC0000u,
  0x00000034u,
  0x00007E00u,
  0x00000061u,
  0x00002100u,
  0x00000000u,
  0x00F4005Au,
  0xB9002082u,
  0x000000A8u,
  0x00006E0Au,
  0x00000002u,
  0x0900BEF4u,
  0x4DA7EE00u,
  0x008D0000u,
  0x66003100u,
  0x77C89930u,
  0x00B50000u,
  0x2000FFF0u,
  0x0079DC00u,
  0x0000DB00u,
  0x00C80000u,
  0x00495D00u,
  0x00000015u,
  0x7AED0000u,
  0x6FAB97D9u,
  0x02850000u,
  0xEE97009Fu,
  0x280000D7u,
  0x00B2E5B8u,
  0x00006FC1u,
  0x5F00003Fu,
  0x00000000u,
  0x00C400F0u,
  0x72000000u,
  0x000000D5u,
  0xD4CD0000u,
  0x00630000u,
  0x45000000u,
  0x8200007Eu,
  0xBF00E100u,
  0x1C980000u,
  0x77000000u,
  0x0062DE8Fu,
  0x00000000u,
  0xC6000000u,
  0x00930070u,
  0xF50000C4u,
  0x00E443F4u,
  0x005F0000u,
  0x0000B800u,
  0x0000E179u,
  0xA2B00000u,
  0x0000AADDu,
  0x4319E200u,
  0x00C80000u,
  0xFA4F0000u,
  0x00C7C700u,
  0x0000F500u,
  0x0000305Bu,
  0x826A0000u,
  0xFA9A9551u,
  0x92000090u,
  0x83006C00u,
  0x00002973u,
  0x0011007Du,
  0x6600D800u,
  0x3D00CD51u,
  0x6F00007Du,
  0x7F21266Cu,
  0x00A600AEu,
  0x00137700u,
  0xBE000027u,
  0x2189787Du,
  0x0006C343u,
  0x00F94C00u,
  0x005A0000u,
  0x43963100u,
  0x0042C034u,
  0x0000BA69u,
  0x00003500u,
  0xEC030000u,
  0x00290000u,
  0x000000C6u,
  0x00C10000u,
  0x00790048u,
  0x000000EAu,
  0x00AF9594u,
  0xBB6800A6u,
  0x0054BD00u,
  0xCA8D0700u,
  0x46FA1A76u,
  0x8700E900u,
  0xD6AC0000u,
  0x81000000u,
  0x0012ACDAu,
  0x4F7859BBu,
  0x00807C00u,
  0x00720075u,
  0x00EB0002u,
  0x00000000u,
  0x00BCD1E8u,
  0xDD004900u,
  0x00DC0000u,
  0x004AED00u,
  0x00000000u,
  0x00CE97D9u,
  0xADE20000u,
  0x0000C12Eu,
  0x0400FB3Eu,
  0xE503BB00u,
  0x0031648Cu,
  0x00000000u,
  0x00000000u,
  0x11000000u,
  0x00007610u,
  0x0000004Au,
  0x0E0081E9u,
  0xD163003Du,
  0xBE9F00D0u,
  0x0000AA00u,
  0x00000000u,
  0x0000B600u,
  0x2E000000u,
  0x0000006Bu,
  0x00270000u,
  0x00000000u,
  0x0B216C0Fu,
  0x00008800u,
  0x00009890u,
  0x19000000u,
  0xE679A2E1u,
  0x000000A6u,
  0x000016EBu,
  0x00009E00u,
  0xDF67EA00u,
  0x4F005BF1u,
  0x00B26A00u,
  0x00000000u,
  0x3900C000u,
  0x2F009361u,
  0x9B00007Fu,
  0xF5890090u,
  0x00280000u,
  0x00182900u,
  0x85B5E247u,
  0x0000A710u,
  0xBD40007Cu,
  0x00000000u,
  0x0000009Du,
  0x00000000u,
  0x007E00D4u,
  0x00426200u,
  0x73EF0000u,
  0x00000000u,
  0x00000000u,
  0x5500F204u,
  0x00000000u,
  0x00003B00u,
  0x00000013u,
  0x677F86C6u,
  0x00000000u,
  0x00BCC800u,
  0x86510000u,
  0x00004B81u,
  0x0000000Eu,
  0x00003E1Cu,
  0x00004200u,
  0x04002800u,
  0x13BC00F4u,
  0x00003307u,
  0x0A000091u,
  0x0CC4123Au,
  0x00006E60u,
  0x00005500u,
  0x4CAB0000u,
  0x480000D7u,
  0x00617E00u,
  0x0000BF00u,
  0x20000000u,
  0x379FE700u,
  0xB267005Eu,
  0x3EE9B000u,
  0x0077D000u,
  0xEF390E00u,
  0x0000A9CDu,
  0x0F007E16u,
  0xE9006A00u,
  0x00000000u,
  0xAA000050u,
  0xC40000BBu,
  0xDD000000u,
  0x0087E100u,
  0xA3003E4Eu,
  0xA7D80000u,
  0x0000000Au,
  0x00E74F00u,
  0x91003000u,
  0x000084C4u,
  0x5799A99Du,
  0x006A7700u,
  0x4DDA0000u,
  0x00C30089u,
  0x00000000u,
  0x00C6EC00u,
  0x00002200u,
  0x007FC200u,
  0xC5000000u,
  0x00040000u,
  0xA3047700u,
  0x00B30068u,
  0x002B0072u,
  0x3C1ADF00u,
  0x09F16600u,
  0x0087B100u,
  0xCD0000B1u,
  0x0000AEF6u,
  0x00007B00u,
  0x6ED00D00u,
  0x6F000000u,
  0x00000083u,
  0x238E0000u,
  0x7D00A102u,
  0xA2000800u,
  0x9C4EAC00u,
  0x004D0000u,
  0x12980000u,
  0x00379600u,
  0x00006300u,
  0x00160000u,
  0x008A0600u,
  0x00004200u,
  0x00BEC3FFu,
  0x00000000u,
  0x62000E00u,
  0x003A0047u,
  0x009B3D69u,
  0x3F006500u,
  0x00000000u,
  0x00000000u,
  0x4BBA0000u,
  0x8422CC1Eu,
  0x7D1D3F00u,
  0x0082CD00u,
  0x00009B00u,
  0xAA00005Au,
  0x0000256Fu,
  0x0000FB00u,
  0xA61A617Cu,
  0xF70000DAu,
  0x000000BBu,
  0x76E5002Au,
  0x00AB0000u,
  0x49009969u,
  0x36FD00B7u,
  0xCF000000u,
  0x4E008400u,
  0x1FEF006Cu,
  0x7000CA00u,
  0x3400009Au,
  0x57000070u,
  0xD4FC7100u,
  0x0010A488u,
  0x64000000u,
  0x350069AFu,
  0x66AF9900u,
  0x00000000u,
  0x55A10000u,
  0x0086A600u,
  0x84000000u,
  0x0000B92Bu,
  0x00000000u,
  0x00740075u,
  0x00007F00u,
  0x2537E516u,
  0xD5A10000u,
  0x6986D7DCu,
  0x00E67000u,
  0x88480000u,
  0x88002900u,
  0x00000000u,
  0xED000000u,
  0x8C00006Du,
  0x005327FDu,
  0x00000000u,
  0x00DC2842u,
  0x6E494B25u,
  0x007C008Du,
  0xBA6E0000u,
  0x00519627u,
  0x2E007B1Eu,
  0xDD00F1BAu,
  0xDC00EC0Bu,
  0x2C754B94u,
  0x0000DCC9u,
  0x8A28D500u,
  0x00E50400u,
  0x9F00006Au,
  0x0081A000u,
  0x0004A328u,
  0x5300DD00u,
  0x00570046u,
  0x00007200u,
  0x00007B00u,
  0x00C24400u,
  0x00F48AA1u,
  0xCE3C43CFu,
  0x00008242u,
  0x93CB0059u,
  0x5D0000C3u,
  0x6F000023u,
  0x68004E1Au,
  0x00D11EDBu,
  0x796D0000u,
  0x00000019u,
  0x00239700u,
  0x00EE00A4u,
  0x0000E100u,
  0x000065A4u,
  0x0000BD00u,
  0xC2007C00u,
  0x00002700u,
  0xA40000FDu,
  0x0000B000u,
  0x00E40000u,
  0x750000B3u,
  0xEF00004Bu,
  0x978A0018u,
  0x00D67300u,
  0x00300000u,
  0x00002B38u,
  0x009BA500u,
  0xFEEE0000u,
  0x00000000u,
  0xDB300082u,
  0x5ED60900u,
  0x00005443u,
  0xCEA30000u,
  0x2F0000B1u,
  0x000000DDu,
  0x00350000u,
  0x0000EC5Au,
  0x00000000u,
  0x002DE1C2u,
  0x5589007Au,
  0x00BB2F5Bu,
  0x002C81B5u,
  0x3D0900D8u,
  0xEC00E684u,
  0x98A10000u,
  0x00D70000u,
  0x002B0000u,
  0x9E9A7000u,
  0x20AAB200u,
  0x00003E00u,
  0xBE0000A0u,
  0x000000DBu,
  0x7D000054u,
  0x002D0000u,
  0x2B003720u,
  0x08D80087u,
  0x84006574u,
  0x0000FBEAu,
  0x00000000u,
  0x00000000u,
  0x00000000u,
  0x004B5200u,
  0x1D00E300u,
  0x00D10044u,
  0x8000B36Eu,
  0x00192000u,
  0x00EDE700u,
  0x0087D4E8u,
  0x7FC6B900u,
  0x0067F4F0u,
  0x8A000041u,
  0xB600C900u,
  0x00307600u,
  0x71000000u,
  0xEE000000u,
  0x9D000077u,
  0x00000000u,
  0x00000000u,
  0x0CD50000u,
  0xB0000080u,
  0x00EC0A1Eu,
  0x00007C00u,
  0x00000006u,
  0xC2F30100u,
  0x78444BADu,
  0x00510000u,
  0xCB3ECC97u,
  0x7E00002Du,
  0x00527C00u,
  0x0000ECCCu,
  0x4B008B00u,
  0x0D000009u,
  0x4500F40Bu,
  0x2000AF00u,
  0x00000000u,
  0x00E40000u,
  0x009A5645u,
  0x008B005Au,
  0x00F94100u,
  0x00800000u,
  0x00001800u,
  0x0069EA44u,
  0x002DDF00u,
  0x008671C9u,
  0x0009007Du,
  0x00B90000u,
  0x3E004D00u,
  0x00D30011u,
  0x0000416Au,
  0x10201100u,
  0x0000888Au,
  0x000B342Fu,
  0x007C04BDu,
  0x00009A00u,
  0x000000FBu,
  0x00007800u,
  0x00817D75u,
  0x007C2F37u,
  0xBB2000D7u,
  0x00C48600u,
  0x9F00D943u,
  0x000000F0u,
  0x0000E718u,
  0x00140053u,
  0x7500003Eu,
  0xC85DAB00u,
  0x52009000u,
  0x1B000043u,
  0x97009100u,
  0xB3C13E00u,
  0x00000000u,
  0xE6008300u,
  0x000000E4u,
  0x00009C3Fu,
  0x00492730u,
  0x0000BA00u,
  0x0000006Au,
  0x00B85200u,
  0x2D008500u,
  0x003C9D98u,
  0x2F0000E2u,
  0x3600569Du,
  0xDA00005Bu,
  0x0000002Cu,
  0x9F49B000u,
  0x0000004Fu,
  0x42427F97u,
  0x00515700u,
  0x001200B4u,
  0x000025D5u,
  0x147F0000u,
  0x00000000u,
  0x00DB0085u,
  0x000000CEu,
  0x00440000u,
  0x00003487u,
  0xDE182E00u,
  0x00A4D800u,
  0x30E50600u,
  0x1B003F00u,
  0x00005429u,
  0xE39B6D00u,
  0x350000B1u,
  0x00399A00u,
  0xCA000000u,
  0x00000050u,
  0x009300A0u,
  0x00280000u,
  0xE5730000u,
  0x55000000u,
  0x0000FC00u,
  0xD0E2000Du,
  0xCB9ACE00u,
  0xB8000000u,
  0x001F0000u,
  0xC5000012u,
  0x210000DDu,
  0x00AF0069u,
  0xB62F0B00u,
  0x005700CFu,
  0x007C0000u,
  0xEB004172u,
  0x85005800u,
  0xCC8A0000u,
  0x00FB65F9u,
  0x00C5006Eu,
  0x002BF1EDu,
  0x39718C00u,
  0x000D0800u,
  0x0000007Eu,
  0xAB00004Fu,
  0x00000000u,
  0x000F008Cu,
  0x0073780Du,
  0x002F0091u,
  0x00DD03ADu,
  0x13E09600u,
  0x000000D1u,
  0x0000A418u,
  0x00000000u,
  0x2D000000u,
  0x00EA3800u,
  0x3EBC0000u,
  0x00000052u,
  0x7800006Bu,
  0x93000000u,
  0x62007800u,
  0xEF873A00u,
  0x007B002Bu,
  0xA7DDC400u,
  0x00280000u,
  0xE7000024u,
  0x69D000AAu,
  0x00F07000u,
  0x10003A00u,
  0x72000000u,
  0xB7008578u,
  0x43000000u,
  0xBD000000u,
  0x001B0D00u,
  0x00000000u,
  0x000003F5u,
  0x75000021u,
  0x00000000u,
  0x04009700u,
  0x950000D2u,
  0x00ED0000u,
  0xA100E300u,
  0xA46E6100u,
  0x28910000u,
  0x00001CA4u,
  0x00000000u,
  0x1C008700u,
  0x00F2B700u,
  0x00008E00u,
  0x8B000000u,
  0x00000900u,
  0x00004109u,
  0x2E0000DFu,
  0x1C9D0000u,
  0x60972DFFu,
  0x0028092Fu,
  0xB000BF00u,
  0x07314F00u,
  0x004B003Bu,
  0xCE9D0000u,
  0x00000053u,
  0x2A000000u,
  0x00BB0689u,
  0x00EA9400u,
  0x00003E00u,
  0x00459A00u,
  0x00E3A5ADu,
  0xDF0000FDu,
  0x00DFC700u,
  0x00000C00u,
  0x00260000u,
  0x8F000000u,
  0xB0AC0000u,
  0xD8000083u,
  0x3700001Eu,
  0xD9000048u,
  0x4800A500u,
  0x13BFE1F8u,
  0x3600E06Au,
  0xB1E30000u,
  0xB9AA0000u,
  0x3E000000u,
  0x00EF36B7u,
  0x32005600u,
  0x880008B2u,
  0xA36A3D00u,
  0x75000000u,
  0x005D0070u,
  0xD000AE00u,
  0x51B0A62Fu,
  0x0000F500u,
  0x52360000u,
  0x342A9600u,
  0x00470000u,
  0x00000000u,
  0x00000000u,
  0x4A3A00A2u,
  0x5E001B00u,
  0x36000000u,
  0xF0680001u,
  0x00000000u,
  0x19E6AF00u,
  0x85000000u,
  0x002B5300u,
  0x6850A4B7u,
  0x00000000u,
  0x8A006056u,
  0xE2FE1FF5u,
  0x61670000u,
  0x000000C8u,
  0x00005776u,
  0x1E460200u,
  0xEC003C3Du,
  0x002E0000u,
  0x00002F82u,
  0xBD000000u,
  0xDAC50000u,
  0x072400D9u,
  0x00E8E600u,
  0x00980179u,
  0x001400EBu,
  0x05E30000u,
  0xD9F01C61u,
  0x001C0014u,
  0x00000000u,
  0x00AB94E4u,
  0x0000000Bu,
  0x00000084u,
  0x3065A2D1u,
  0x00003100u,
  0x000000AFu,
  0x0000D5C5u,
  0xAB000000u,
  0x00005C00u,
  0x6B004CE6u,
  0x0086A300u,
  0x929EF400u,
  0x6000004Du,
  0x2A472A7Au,
  0x598DF500u,
  0x00D44A85u,
  0x000D0000u,
  0x00160000u,
  0x00F50000u,
  0x00F0C2EAu,
  0x4B5419A3u,
  0x001BF401u,
  0x0000BB9Fu,
  0x4FDA1250u,
  0x0000C600u,
  0x00FA0244u,
  0x00DE6F19u,
  0x0000DBFBu,
  0x03440000u,
  0x0000E500u,
  0x8B131F25u,
  0x4E003883u,
  0x001C00C3u,
  0xBF460000u,
  0x006C0000u,
  0xA200E924u,
  0x0000005Du,
  0xE4940000u,
  0x00850000u,
  0x00001900u,
  0x0000CB00u,
  0x000000C6u,
  0xBA0000AEu,
  0x00000054u,
  0x5E6800E3u,
  0x79DE0017u,
  0x0F009900u,
  0x57002800u,
  0x00A8D600u,
  0x004AD200u,
  0x0000C800u,
  0x00A20000u,
  0x9D003DFEu,
  0x003A4546u,
  0x0000A600u,
  0x00000000u,
  0xF0C96BB2u,
  0x980000FDu,
  0x0000A500u,
  0x005D0004u,
  0x1A009334u,
  0x0000F400u,
  0x758BDD4Fu,
  0x8500008Eu,
  0x00000000u,
  0x00000000u,
  0x00A40000u,
  0x00000100u,
  0x00392800u,
  0xB4490000u,
  0x002A0000u,
  0xC02B0000u,
  0x002E3924u,
  0x00000000u,
  0x00182F00u,
  0x2BBC001Eu,
  0x77006B00u,
  0x2E660000u,
  0xD08E68BBu,
  0x746FCB50u,
  0x0000AC00u,
  0x00E4001Cu,
  0x00000048u,
  0x00F44747u,
  0x0F000000u,
  0x0000DE00u,
  0x120000D5u,
  0x00D69600u,
  0x00B61A00u,
  0xB5008100u,
  0x00000000u,
  0x00260089u,
  0x002D00D4u,
  0xD8000048u,
  0xA3FC6BF8u,
  0x7D00CEABu,
  0x00000000u,
  0x53000000u,
  0x004F0000u,
  0x93440000u,
  0x2C00001Eu,
  0x00002F00u,
  0x00000000u,
  0x0000FE00u,
  0x00800000u,
  0x007005CDu,
  0x5E13F800u,
  0xE0430000u,
  0xE8031607u,
  0x06006289u,
  0x0015C3E1u,
  0x000E0098u,
  0xEF0D0084u,
  0x520000D5u,
  0xD2E200CBu,
  0x001D5900u,
  0xA35900F0u,
  0xEFA14E5Cu,
  0x00CD0050u,
  0x0C0C0000u,
  0x0000CE8Du,
  0x46000000u,
  0x000000B2u,
  0x26002600u,
  0xE4000035u,
  0x00A4A041u,
  0x000E0000u,
  0x006000C1u,
  0x5300DA4Au,
  0x0200AE9Eu,
  0x00002800u,
  0x00BDDC00u,
  0x7D420000u,
  0x0000AC00u,
  0x9E002400u,
  0x31A00092u,
  0x00F00000u,
  0x00640072u,
  0x001C0000u,
  0x6D9A9400u,
  0x005C0000u,
  0x2C0000B1u,
  0x665F8A00u,
  0xFC650007u,
  0x00D3F100u,
  0x00006600u,
  0x00D32700u,
  0x1B3F007Fu,
  0x0000DB00u,
  0x2400D691u,
  0xFDBA0000u,
  0x66003CE6u,
  0x00C62424u,
  0x5800000Cu,
  0x8D00B700u,
  0x7B000000u,
  0x9500CBF6u,
  0xAA300000u,
  0x2FD50098u,
  0xB1E1EE00u,
  0x00CC270Au,
  0x3900B600u,
  0x35630078u,
  0x001200DFu,
  0x8D12C41Cu,
  0x00F80000u,
  0x00330C00u,
  0x00F56900u,
  0xA9000000u,
  0x00550000u,
  0x007400CBu,
  0xBC009678u,
  0x657C5AD1u,
  0x80BB2185u,
  0x96000D00u,
  0x80560000u,
  0x09AE0000u,
  0x8500DDFCu,
  0x00AA0000u,
  0x00000000u,
  0x000000A0u,
  0x3AEC00E4u,
  0x94D42C00u,
  0x57004E54u,
  0x0044F779u,
  0x00007100u,
  0x4160003Bu,
  0x0400F542u,
  0x0025B600u,
  0x510000E6u,
  0x06830000u,
  0x00FC0082u,
  0x1A350000u,
  0xFC000048u,
  0xCBC60000u,
  0x00426500u,
  0x000073BAu,
  0xEF006800u,
  0x002EA0EEu,
  0x0000D100u,
  0x730000C5u,
  0x00009327u,
  0x00AE0000u,
  0xE5000000u,
  0x00000000u,
  0xC300EEDAu,
  0x9C6E005Du,
  0x00119700u,
  0xB5A20000u,
  0x1D007C00u,
  0xBA34DF82u,
  0x00266400u,
  0x5000CD67u,
  0x8E00F7D9u,
  0x00000000u,
  0x60A73000u,
  0x0003FE00u,
  0x75005200u,
  0x00D1C95Du,
  0xA900002Bu,
  0x64004E1Bu,
  0x4E000079u,
  0x3500AA00u,
  0x00000000u,
  0x00000000u,
  0x00000000u,
  0x0EC6008Eu,
  0x00E60000u,
  0x0000B500u,
  0x85E50446u,
  0x003AA900u,
  0x00F40024u,
  0x20530000u,
  0x00000000u,
  0x00000000u,
  0x00000E00u,
  0x0000FFB8u,
  0x00E557ECu,
  0x00000003u,
  0xBF400000u,
  0x0042DB17u,
  0x00000000u,
  0x00C600B3u,
  0x0000BA00u,
  0x00000000u,
  0xCFAB0000u,
  0xB2005FDBu,
  0x00003A9Eu,
  0xCB9A5EF5u,
  0x00000000u,
  0x00003F6Bu,
  0x29003C5Eu,
  0x00000000u,
  0x42D1BD39u,
  0x0000EC0Cu,
  0x00008E5Au,
  0x00420051u,
  0x0D0000A2u,
  0x00006AE1u,
  0x007CAD00u,
  0x003D132Bu,
  0xA2000086u,
  0x5C7A3400u,
  0x4417D4D2u,
  0x0000BC00u,
  0x00E30000u,
  0x00000000u,
  0xA94BD800u,
  0x007F6000u,
  0xD3F3A54Cu,
  0x13009122u,
  0xE05E00D8u,
  0x005C0000u,
  0x0D2A0000u,
  0x48000014u,
  0xA6000000u,
  0x00003F00u,
  0x2A00BE00u,
  0x86E90000u,
  0x00000000u,
  0x39DF000Cu,
  0xBC1D9949u,
  0xEEDCEE00u,
  0x0000ED00u,
  0x00FD0000u,
  0x00000000u,
  0x0000014Fu,
  0x00000000u,
  0xBA000052u,
  0x20000000u,
  0xEE0000C5u,
  0x90000000u,
  0xBF846600u,
  0x00000096u,
  0x73330000u,
  0x35A20300u,
  0x00000000u,
  0xB666DE00u,
  0x68000000u,
  0x9A538B00u,
  0x0056006Cu,
  0x03000000u,
  0x2AB2EE00u,
  0x8F5597FEu,
  0xBF000000u,
  0x00262F00u,
  0x001CFD00u,
  0x00560066u,
  0x17AB001Bu,
  0x557B0000u,
  0xB1916971u,
  0x00980000u,
  0x0070674Eu,
  0x00B76AC3u,
  0xA3000000u,
  0xE58300BCu,
  0x458CCFDEu,
  0x9D000012u,
  0x9A008C46u,
  0x002C5A27u,
  0x6C006D94u,
  0x0000FA00u,
  0x00BFA300u,
  0x0000000Bu,
  0xB305BF31u,
  0xED000000u,
  0x0000EE00u,
  0x62696500u,
  0x8000003Eu,
  0x007F0000u,
  0x01000000u,
  0x74002C00u,
  0x00B01A92u,
  0xB7000D91u,
  0x0000B24Eu,
  0x00C10040u,
  0xC70000D9u,
  0x3700A700u,
  0x1B8FDB18u,
  0x5FF54C45u,
  0x390000ACu,
  0x960000F3u,
  0x00002500u,
  0x000000F8u,
  0x00D4A886u,
  0x00006300u,
  0xD1900000u,
  0xCA008E64u,
  0x00000000u,
  0x00000000u,
  0x00B28900u,
  0x3D344E00u,
  0xB40000D5u,
  0x00C100F9u,
  0x00000048u,
  0x69AD1954u,
  0x000000DFu,
  0x0000F000u,
  0x14A60543u,
  0x733BE400u,
  0x4C00C000u,
  0x00000024u,
  0x50000000u,
  0xB08EDD00u,
  0xD100F600u,
  0x00B35500u,
  0x00000000u,
  0xE0460B31u,
  0x3205427Bu,
  0x5D66001Eu,
  0x00BB0000u,
  0x0089BA00u,
  0x00A20000u,
  0x00A400B2u,
  0x00B1B0D0u,
  0x00D90000u,
  0xD5000019u,
  0x00DCA1A6u,
  0x002C0000u,
  0x55009100u,
  0x00E30000u,
  0x9600DC00u,
  0x2A0000B7u,
  0x087B8CFCu,
  0xCA00C11Au,
  0x58023900u,
  0x295C00C1u,
  0x00007638u,
  0x00588300u,
  0x00007D00u,
  0x5FD0EC78u,
  0x00A06333u,
  0x41000024u,
  0x008BD600u,
  0x1C98E824u,
  0x10000041u,
  0x00007B00u,
  0x8000005Eu,
  0x0000798Eu,
  0x6F0D0000u,
  0xF100C500u,
  0x00000054u,
  0x00007A00u,
  0x00000000u,
  0x0000000Fu,
  0x001D3300u,
  0xDEC90000u,
  0xB9007000u,
  0x00ECDC11u,
  0x4E0019C9u,
  0xCE00E129u,
  0x234A00DCu,
  0x0010D500u,
  0x00006A00u,
  0x002B0048u,
  0xD7334F00u,
  0xAFBCB000u,
  0x0000008Cu,
  0xCDAB9900u,
  0x00000000u,
  0x00000096u,
  0x00D60000u,
  0x00009846u,
  0x63009A00u,
  0x00000000u,
  0xEC001700u,
  0x7AC5EBFEu,
  0x00008D9Cu,
  0xED001E00u,
  0xE22E00A0u,
  0x00000068u,
  0x1000B130u,
  0x00005094u,
  0xD51D0000u,
  0x00E5EE00u,
  0x0008EF00u,
  0x003B002Eu,
  0x000CED00u,
  0xA800D100u,
  0x3F000010u,
  0xA27AB0D7u,
  0xC97A0000u,
  0xB0219000u,
  0x0000004Eu,
  0xB500EF00u,
  0x00360000u,
  0x9E47F200u,
  0x7100DFB4u,
  0xAFE00000u,
  0x0000C700u,
  0x00000000u,
  0x00320050u,
  0x522C0047u,
  0x8200BC00u,
  0x0000005Cu,
  0xB3007BBCu,
  0x00D0ED06u,
  0x1F00D342u,
  0xD40000BAu,
  0xC800E405u,
  0x06530000u,
  0x00000000u,
  0x00CD006Bu,
  0x00007DF7u,
  0xE407CE42u,
  0xDC8A00CAu,
  0x619C9EE4u,
  0xDF001500u,
  0x762ADD48u,
  0x7C0000F5u,
  0x8A70001Au,
  0x000000AFu,
  0x67800000u,
  0x7E75007Eu,
  0x52009637u,
  0x9A932D00u,
  0x0042007Du,
  0x00720CECu,
  0x4C0000C6u,
  0x04000500u,
  0x2100F12Du,
  0x006BEB36u,
  0x4200A243u,
  0x00468C00u,
  0x2477C33Bu,
  0x00280238u,
  0xDE000045u,
  0x00C200B8u,
  0xEBCD5D3Au,
  0xC5350000u,
  0x00C8E205u,
  0x00000000u,
  0x00000076u,
  0x00000500u,
  0x5100CB00u,
  0x7C000046u,
  0xA5C29F00u,
  0x4CDA6AE6u,
  0x00000000u,
  0xA200B700u,
  0x31000072u,
  0x00005500u,
  0x4500D4CAu,
  0x00000010u,
  0x00000045u,
  0x266A00AFu,
  0x169F001Du,
  0x870000B1u,
  0x007A2353u,
  0xDFB09D00u,
  0x00000000u,
  0x00CC64EDu,
  0x009D7413u,
  0x00000000u,
  0x00000000u,
  0x94FA0000u,
  0x0000DFF1u,
  0x00E94385u,
  0x00009500u,
  0x0095DC00u,
  0x0018AC00u,
  0x000000C0u,
  0x00000AC9u,
  0x7F00006Au,
  0x9700003Au,
  0xC9E2B200u,
  0x88000087u,
  0x00580000u,
  0x60BA9300u,
  0xE1000600u,
  0x00000300u,
  0x001B98D8u,
  0x00002200u,
  0x0000E6FBu,
  0x1E88C79Fu,
  0xD462D600u,
  0xFD2D4B91u,
  0x7664008Eu,
  0x0783D3AAu,
  0x00002EF2u,
  0x00DC2700u,
  0x00A5C000u,
  0x0DC81600u,
  0x000000AFu,
  0x00282CC1u,
  0x002300C5u,
  0x94DC00D2u,
  0xF4E800F6u,
  0x0000A800u,
  0x00006F00u,
  0xC500C1DCu,
  0x00000000u,
  0x4D62000Eu,
  0x004200CFu,
  0x19CF6D00u,
  0x00007800u,
  0x00524200u,
  0x002181D2u,
  0x7DBB7B00u,
  0x0000EE00u,
  0x3400004Eu,
  0x3700BA00u,
  0x00DE14FDu,
  0xDC002B00u,
  0x0000BA7Du,
  0xBE000000u,
  0x00000046u,
  0xEA00DD00u,
  0x00001100u,
  0xB100006Au,
  0x000B0046u,
  0xB7BF0000u,
  0x0000002Fu,
  0x00270031u,
  0x3CA0F600u,
  0x1D000038u,
  0x00520000u,
  0x27500099u,
  0x00E40400u,
  0x7C000000u,
  0x00000049u,
  0x000000CCu,
  0x00002E00u,
  0x1B7E7300u,
  0x0000B500u,
  0x50000000u,
  0x004C3C1Du,
  0x00004837u,
  0x4D0000BEu,
  0x2F00F81Bu,
  0x001D0000u,
  0x70008600u,
  0xF800DD00u,
  0x9B002F00u,
  0x87001400u,
  0x00000000u,
  0x00C60000u,
  0x0000CE00u,
  0x00000000u,
  0x00000084u,
  0x5C3BF400u,
  0x706B7FBDu,
  0x350000E8u,
  0x00000000u,
  0x00BC0000u,
  0x00000000u,
  0x000011ECu,
  0x7200ED4Du,
  0xDA000000u,
  0x0FA7DADAu,
  0x000B0000u,
  0x00000000u,
  0x92A8E500u,
  0xB54E00F3u,
  0x21FB0069u,
  0x21001A00u,
  0xB39E0011u,
  0xA2DEAA58u,
  0xF2004000u,
  0x6B00140Eu,
  0x00000000u,
  0x66000000u,
  0xFC000022u,
  0x497F2100u,
  0x00000000u,
  0x5300002Bu,
  0x00000000u,
  0x00620000u,
  0x0000D125u,
  0x0000E21Du,
  0x0000CE00u,
  0x440000D5u,
  0x000000A1u,
  0x001C0050u,
  0x89B70000u,
  0x04100055u,
  0x00F9F1F5u,
  0x00A60000u,
  0xC7000000u,
  0x47000000u,
  0x9E3BEB00u,
  0x00178F00u,
  0x00000091u,
  0xA5005D00u,
  0x0000DE98u,
  0xC0000000u,
  0x89005E83u,
  0x00000005u,
  0x5C006600u,
  0x0A00FD1Du,
  0xE4000000u,
  0x0000F7F1u,
  0xB3004874u,
  0x3E981C00u,
  0x2B001D74u,
  0x00A700D6u,
  0xDE0000E4u,
  0x45005800u,
  0x00000100u,
  0x009300E4u,
  0x00000013u,
  0x5A026800u,
  0x00000469u,
  0x2F43EEB2u,
  0xA6000000u,
  0x580FE600u,
  0x0000BD00u,
  0x000056D7u,
  0x006D8F88u,
  0xA9BF8800u,
  0xD90000AEu,
  0x0000D443u,
  0x00000000u,
  0x1700005Cu,
  0xCF8DD731u,
  0x62780000u,
  0x6A0000FEu,
  0x8F7A0100u,
  0x00C40000u,
  0x0000005Eu,
  0x00000000u,
  0xCB634FAEu,
  0x00009E00u,
  0x702E8B00u,
  0x0000007Bu,
  0xDDBF0000u,
  0xF6000000u,
  0x2ABB0031u,
  0xBA74007Eu,
  0x002088C7u,
  0xB2E22600u,
  0x00A10000u,
  0x74000072u,
  0x06459C00u,
  0x007C2CEBu,
  0xAE6E2BE4u,
  0x0067EF00u,
  0x00240000u,
  0x0089A200u,
  0x00DF0000u,
  0x000000BBu,
  0x87030097u,
  0x36B22100u,
  0x001C80EFu,
  0x430018ECu,
  0x00D100F4u,
  0xFC00C100u,
  0x60124900u,
  0x0800D600u,
  0xCADA4E00u,
  0x4E029100u,
  0x0000497Fu,
  0x00B62A00u,
  0x00000056u,
  0x5E8E0000u,
  0x00000000u,
  0x00890000u,
  0x00F400BAu,
  0x0000006Bu,
  0xE62002F9u,
  0x00980000u,
  0x007134A8u,
  0xB100C966u,
  0x53FD0000u,
  0xBF00E800u,
  0x007D0000u,
  0x00002200u,
  0xE22900C7u,
  0x7F002CFAu,
  0x64A61C00u,
  0x9000BB00u,
  0x00780000u,
  0xA6741485u,
  0x00A6E2BCu,
  0x000000F7u,
  0x00000000u,
  0x85204600u,
  0x00000086u,
  0x000000B3u,
  0x00008845u,
  0x0000008Eu,
  0x0000FE01u,
  0x00005F82u,
  0x4100FE00u,
  0x006E0000u,
  0x00D80029u,
  0x00000DC5u,
  0x839EA800u,
  0x00DA0000u,
  0xCFBCF2DEu,
  0x54000000u,
  0x00004537u,
  0x003E3C0Bu,
  0x00009100u,
  0x00590000u,
  0xED007D12u,
  0xC5750000u,
  0x9D0085A5u,
  0x738AEE68u,
  0xE60F00D7u,
  0x7800DC00u,
  0x47FB00ADu,
  0x1BEB987Du,
  0xBE008519u,
  0x3E00C800u,
  0xC0000000u,
  0xCC00BD0Au,
  0x0076127Bu,
  0x00D5A300u,
  0x002F3E00u,
  0x08C70074u,
  0x003E0000u,
  0xE1FB0000u,
  0x2AE00012u,
  0x003251A5u,
  0x0000A9D7u,
  0x9F7E009Fu,
  0xD0000051u,
  0x00000000u,
  0xC88DA4B5u,
  0xB4B50000u,
  0x6B006100u,
  0x00000000u,
  0x6A003A33u,
  0x0000DA00u,
  0x000066DFu,
  0x87003AD1u,
  0x6F00CB75u,
  0x000A009Au,
  0xFC00F57Fu,
  0x1345E331u,
  0x00942EEDu,
  0x00009700u,
  0x3E000000u,
  0x6C00A100u,
  0x9E22008Au,
  0x004800D9u,
  0x00000013u,
  0x00000096u,
  0x00AA0000u,
  0x00000000u,
  0xE95ACDF4u,
  0x009CF000u,
  0x00003900u,
  0xAEB800ABu,
  0x006872DAu,
  0x55003100u,
  0x000055BAu,
  0x3D000000u,
  0x55C20000u,
  0x00010000u,
  0x0000D200u,
  0x00009CE8u,
  0x13008900u,
  0xCC0000B4u,
  0x00000000u,
  0x00CD0000u,
  0x006600AEu,
  0x00000079u,
  0x00030000u,
  0xD3AD9300u,
  0x0000E500u,
  0xA4EB0DF3u,
  0x00D60000u,
  0x40201C85u,
  0xBD00AD00u,
  0x00001999u,
  0xFC46DD68u,
  0x00B70046u,
  0xB365AAB3u,
  0x14A687F1u,
  0x1100E700u,
  0x3BB00800u,
  0x00E90C01u,
  0x00009851u,
  0x008900DAu,
  0x00A10000u,
  0x8A006A22u,
  0xF7007A00u,
  0x7D007CA1u,
  0x003D0000u,
  0xC0009000u,
  0x98C0B4A6u,
  0x0000002Eu,
  0x00000032u,
  0x1403B200u,
  0xD20000E7u,
  0x265B0079u,
  0x3D001C00u,
  0x1F000194u,
  0x0000003Cu,
  0x00290000u,
  0x007D0000u,
  0x0000009Bu,
  0x386900F0u,
  0x00000000u,
  0x57000000u,
  0x00004E00u,
  0x0058009Au,
  0x00004D00u,
  0x0A000000u,
  0x00001600u,
  0x0013B435u,
  0x0000DF00u,
  0x001B00A5u,
  0x00D08900u,
  0x000000A9u,
  0x00040023u,
  0x00830000u,
  0x2F020000u,
  0x003ED7C0u,
  0x0000E000u,
  0x2B300000u,
  0x9CE85B00u,
  0x009C0000u,
  0x00000000u,
  0x001CBA00u,
  0x2700273Au,
  0x00004196u,
  0x18000000u,
  0xE6000094u,
  0xD000F700u,
  0x9EA80000u,
  0x7BC32372u,
  0x0000004Bu,
  0x99009CEFu,
  0x00BC00D5u,
  0xCC00F200u,
  0x07AE0068u,
  0xB0000000u,
  0x00370000u,
  0x00000000u,
  0x65000000u,
  0x00000000u,
  0x8B0056E3u,
  0x79000083u,
  0x00523310u,
  0x00009B00u,
  0x8FAE3C00u,
  0x001FAAD1u,
  0x00003432u,
  0x420700A2u,
  0xE0ED0000u,
  0x0000D7D1u,
  0x79030002u,
  0x3F890000u,
  0x4992883Bu,
  0x000000F5u,
  0x0000B500u,
  0x0000B500u,
  0x9E2E0029u,
  0x005C095Bu,
  0x04A60000u,
  0x00C70013u,
  0x81FCC600u,
  0xD0008500u,
  0x00E4CB00u,
  0x00008855u,
  0x00130072u,
  0x0000D200u,
  0xF4695874u,
  0xDC2F1C00u,
  0xAD00DA00u,
  0x00008827u,
  0x9A006F00u,
  0x00000000u,
  0xD188B700u,
  0x002B0028u,
  0xCA0000EBu,
  0x1F007800u,
  0x00004112u,
  0x00000000u,
  0x0CEE0000u,
  0x5100DF00u,
  0x0000BF00u,
  0x15007F00u,
  0xA0008F00u,
  0xC0000000u,
  0xA88B0016u,
  0x083800C5u,
  0x829A2828u,
  0x00007E08u,
  0x62007400u,
  0x4D0E9F2Du,
  0xB4000031u,
  0x8800BFB4u,
  0x790F2200u,
  0x00BF0000u,
  0x00778497u,
  0x5C190000u,
  0xF3DED300u,
  0x00B70054u,
  0x5400007Bu,
  0x645B1500u,
  0xC3A3D400u,
  0x4D000000u,
  0x972D00F6u,
  0x53008FE9u,
  0x3A009000u,
  0x51000000u,
  0x40B10091u,
  0x00BEB900u,
  0x34000000u,
  0xCD00B200u,
  0xE1007300u,
  0x588C0000u,
  0x6B00233Bu,
  0x00230000u,
  0xE200E99Fu,
  0x0044BECFu,
  0x00000000u,
  0x00DB0000u,
  0xA4000000u,
  0x00EA0000u,
  0x0052F5C7u,
  0x00260000u,
  0xC39931E6u,
  0xBE332C00u,
  0xA3EC6B00u,
  0xE557B11Fu,
  0x22E2A800u,
  0xB12F0004u,
  0x00000094u,
  0x00B84086u,
  0xF363DECCu,
  0x00CB0000u,
  0xF7205A1Du,
  0xF379005Cu,
  0x0035005Cu,
  0x8B70BD00u,
  0x0000817Eu,
  0x0000000Bu,
  0x00004E27u,
  0x004CDB00u,
  0x001C00FCu,
  0x00000060u,
  0xA7B50000u,
  0xFC000000u,
  0x0033FB00u,
  0x81457A5Au,
  0x75000000u,
  0x320056ACu,
  0x00AD3193u,
  0x00000015u,
  0x26000000u,
  0x003100D6u,
  0x00E7F3B3u,
  0x00006100u,
  0x00D03E00u,
  0x00338200u,
  0x19981D9Bu,
  0x4CBB0000u,
  0x0000005Fu,
  0x00AFA413u,
  0x006200FAu,
  0x00C63E00u,
  0x2C00B816u,
  0x001DD677u,
  0xB7000057u,
  0x008F4702u,
  0x0000CB00u,
  0x0078CBCBu,
  0xF2000000u,
  0x36D62757u,
  0x00680083u,
  0x00825300u,
  0x007E5600u,
  0x00A40000u,
  0xF7000000u,
  0xB7009E4Bu,
  0x000000F7u,
  0xF5AA0000u,
  0xC5002BC9u,
  0xEFF0F561u,
  0x68C7E000u,
  0x6B1C4500u,
  0x00A10499u,
  0x00002600u,
  0x00006C00u,
  0xADA29200u,
  0x09008700u,
  0x00E70000u,
  0xC0A97DE1u,
  0xEB001F00u,
  0xB9DAC000u,
  0x4927BD74u,
  0x003C26EBu,
  0x000035D0u,
  0xBF2C1383u,
  0x75000000u,
  0xE22641BEu,
  0x1200F763u,
  0x001E0092u,
  0x0000C080u,
  0xDEF20A87u,
  0x00002294u,
  0x000000FEu,
  0xC4DA0060u,
  0x00FC00C3u,
  0xE5000045u,
  0x00000032u,
  0x00004600u,
  0x00E10079u,
  0x05D10000u,
  0x00500000u,
  0xD3E497F4u,
  0x000C0000u,
  0x1800C7C2u,
  0x7DF00000u,
  0x9B008500u,
  0x3BD00000u,
  0xCE007BC5u,
  0x00009700u,
  0x32007800u,
  0x00000000u,
  0xFC622E03u,
  0x3100F800u,
  0xA8005D00u,
  0xE1BB0000u,
  0x000000D0u,
  0x9800E500u,
  0x006FDA29u,
  0xC1920000u,
  0x009DE600u,
  0x00351200u,
  0x7F9100CDu,
  0xDDB8D85Fu,
  0xDC000030u,
  0xC5000000u,
  0xB1000300u,
  0x01C10000u,
  0xCB5D0065u,
  0xA8AC0006u,
  0xA5B90E00u,
  0xEA0000D0u,
  0xCAA88200u,
  0xD2000000u,
  0x73920037u,
  0x52D30000u,
  0x00B6005Du,
  0x00760049u,
  0xACB80000u,
  0x88562100u,
  0xC400001Eu,
  0x00EB2CCBu,
  0x000000A8u,
  0x0000A600u,
  0x007E0011u,
  0xC8000062u,
  0x5A6B5900u,
  0x0000004Du,
  0xAE1EEF00u,
  0x000400E2u,
  0x000000C4u,
  0xC5F76200u,
  0x00000000u,
  0x007300C3u,
  0x9D5D0013u,
  0x71D400F7u,
  0x1F6A0000u,
  0x00890000u,
  0x0024C500u,
  0x52170000u,
  0xCC000073u,
  0x00000078u,
  0x0014D134u,
  0x65075099u,
  0x0000F73Cu,
  0x02A9A200u,
  0xC03513D0u,
  0xAD006994u,
  0x00D18C00u,
  0xB1003462u,
  0xB500855Bu,
  0x8100F100u,
  0x00002F00u,
  0xFD888100u,
  0x00000000u,
  0xD8000000u,
  0x0000A200u,
  0x94910000u,
  0x0011912Eu,
  0x9600009Cu,
  0x0030009Du,
  0x00940033u,
  0x00704CE6u,
  0x9B0008D9u,
  0x00000000u,
  0x00CEE900u,
  0xAB4B002Bu,
  0x004F0000u,
  0x09630000u,
  0x4200DD82u,
  0x549EAB00u,
  0x00000000u,
  0xFED60000u,
  0x9ECC00FBu,
  0x00000090u,
  0x8FB84F00u,
  0x8D00E500u,
  0xAE340615u,
  0x0000CD96u,
  0x0C620000u,
  0x00D70072u,
  0xDB009C8Eu,
  0x8E1D0000u,
  0x7AFC7A28u,
  0x63430000u,
  0x852DDD3Bu,
  0x00001FAEu,
  0x00000000u,
  0x7B008635u,
  0x00DFD500u,
  0x00000000u,
  0x2FF30000u,
  0xCD000000u,
  0x0000E027u,
  0xF5920300u,
  0x25008800u,
  0x00DF0063u,
  0x8B0000DDu,
  0x000000B5u,
  0x00510000u,
  0x086E9600u,
  0x0004CB40u,
  0x8B001E00u,
  0x004D0000u,
  0x006000CFu,
  0x0000AE00u,
  0x00297200u,
  0x00025C82u,
  0x004A0052u,
  0x39B9BB2Eu,
  0x0678F700u,
  0x00001200u,
  0xF94C0000u,
  0x005D2A00u,
  0x0000F200u,
  0x00AAD100u,
  0x8700AD1Au,
  0xE9508100u,
  0x0031E2E1u,
  0xBA000000u,
  0x000000C6u,
  0x00004900u,
  0x0085F1D1u,
  0x00800000u,
  0x001700A5u,
  0x5F690ED0u,
  0x00008F35u,
  0x000000E2u,
  0x1E00C9E9u,
  0x4F005600u,
  0x22000000u,
  0xC900F800u,
  0x00000000u,
  0x00000000u,
  0x9ADBB30Du,
  0x005B0000u,
  0x00320075u,
  0xEED30048u,
  0x00008C00u,
  0x00A000BCu,
  0xC2000000u,
  0x0000DA00u,
  0x000000DAu,
  0x00DB8700u,
  0xED000000u,
  0xDD679C00u,
  0xFD00E500u,
  0x00B64500u,
  0x00CC00A9u,
  0x000096F5u,
  0x001E0000u,
  0x185C5100u,
  0xAAF00034u,
  0x3D000000u,
  0x10283200u,
  0xB46D00FBu,
  0xC2650084u,
  0x7800E4D0u,
  0xFCB5008Du,
  0x1E680000u,
  0xDCBE32FCu,
  0xEC00E200u,
  0x7C000000u,
  0xFD006696u,
  0x7D000000u,
  0x00009400u,
  0x0D000045u,
  0x40FEEB61u,
  0x00680400u,
  0x00BAEE03u,
  0x23C93A00u,
  0xB4000000u,
  0x5390484Fu,
  0x000072E5u,
  0x9D4A0000u,
  0x26680000u,
  0x00AB0000u,
  0x000000DEu,
  0x00003800u,
  0x00F376BDu,
  0x33000134u,
  0x03FC00F2u,
  0xE17D002Bu,
  0x00AD5524u,
  0x2100827Cu,
  0x0016DE00u,
  0x00000000u,
  0x441A0000u,
  0x28A7F000u,
  0x00DB3500u,
  0x0016E600u,
  0xCBFE3260u,
  0xAA000000u,
  0x00330000u,
  0xDD0000C5u,
  0x001C0000u,
  0x47C09D30u,
  0xF600005Bu,
  0xD84DE500u,
  0x00C96900u,
  0xF0005100u,
  0xE2B92800u,
  0x14A0C400u,
  0x71000006u,
  0x00000000u,
  0x6900004Bu,
  0x001900CAu,
  0x00000000u,
  0x00D23EC7u,
  0x1600277Au,
  0x000000F4u,
  0x00AB0000u,
  0x008A0000u,
  0xE4000000u,
  0x000000FFu,
  0xAB003A00u,
  0x00680000u,
  0x110000B2u,
  0x00BBFAC3u,
  0xAD516800u,
  0xB100673Eu,
  0x00BB007Du,
  0x04C50000u,
  0x007400ECu,
  0x8F5CA200u,
  0x00778A4Au,
  0x63000000u,
  0x329F8261u,
  0x001034E1u,
  0x5300007Au,
  0x2900DA53u,
  0x00000000u,
  0xF7F20020u,
  0x4700FFE0u,
  0x00864C00u,
  0x99DA0011u,
  0xE09D0000u,
  0xA2E80000u,
  0x002C0000u,
