ea20dddf
f8e6e7f9
0113f222
03f01ef8
caee0c13
19f4f1f0
030d0ae3
1bf90119
12f403c5
ec15e308
1f0fe50b
0911e804
ee1de7e4
05f1f92d
ec250e1a
04f30704
f3e7cf03
0ceb211f
0209e4f7
eff9e30c
20e2eed8
dd01f8fe
200edffe
0513e70b
0f010607
f715010d
07d8111c
220007cd
ed0adb06
f6e70717
e01cfb1f
e0ec0ef9
f9cafb1e
f0f8f3f4
fafdd910
0df613ed
eb16ccf8
fdf1111c
dd1dfb1d
ffee0cef
dd11f8fa
edede1e0
01d80125
0bf708e8
fe15e8f9
18f30618
f9051002
b7fce103
00030cf6
b21ced07
2007dc06
0816d8fc
ed1ef908
f70d05fc
fce2e704
1a0201be
1eebfbe7
fa0cae03
10fbe8f4
1a10e8f1
0be2f2f9
16ecd7e5
2408f1db
180deb16
00008806
00000000
00007795
00000000
0000b634
00000000
0000b0d0
00000000
00005e6d
00000000
000099e7
00000000
000089a4
00000000
00007625
00000000
00007e69
00000000
00007b2d
00000000
00009005
00000000
0000b7e9
00000000
0000a003
00000000
00009102
00000000
00009061
00000000
00007528
00000000
fdd5f02b
ffffffff
feb35efe
ffffffff
f8bdb07e
ffffffff
efba33ad
ffffffff
ff988816
ffffffff
fec71317
ffffffff
f7f7daf1
ffffffff
fcfbb9d7
ffffffff
001bee09
00000000
fad07c95
ffffffff
0153f776
00000000
f96353b0
ffffffff
faf802c9
ffffffff
ffa71ecd
ffffffff
ffffaaa6
ffffffff
01a59db3
00000000
