deede32a
d312f411
04f5f339
2d171604
01f92031
2200eef7
372415f2
03f4f13b
15bec905
faf01dd9
200a03f4
11252c04
17eb0506
e73d21fd
07111027
12fb3014
0000aeb0
00000000
0000e038
00000000
00013fd8
00000000
00007788
00000000
0000a7a8
00000000
00009448
00000000
0000a5a0
00000000
0000dbd8
00000000
068b2fa8
00000000
edc174a0
ffffffff
e6ab4920
ffffffff
083ae2d0
00000000
0c075600
00000000
02d80980
00000000
030ed438
00000000
f3500cd8
ffffffff
