2e0dd6ee
00f8f41e
e6e701ef
ee2f03e5
1d1602df
e91aed0e
19faf8cb
fd09fae7
05ea1aef
f1f941ef
08000623
251c0105
0ff5050f
c60218f6
14f2c208
2801f00c
2125ee01
efeefe22
13ed1b07
ebeedd27
021707e6
e9ddfeee
f3fb020c
f83619f6
00fd1713
3ff6f7f8
22f9f100
d703d50a
05fc04f5
f03ce408
fcd817f1
d8f1f40a
0000fe88
00000000
000131dc
00000000
0000f4b0
00000000
0000c4b3
00000000
0000bb62
00000000
00009ff6
00000000
0000d020
00000000
0000d269
00000000
000167d3
00000000
0000a72b
00000000
0000a91a
00000000
0000c648
00000000
0001004a
00000000
0000a26c
00000000
00009e61
00000000
0000ecc7
00000000
fb8ee6e9
ffffffff
0944d555
00000000
07654404
00000000
112123aa
00000000
0544db26
00000000
f5c44b55
ffffffff
11293329
00000000
f6b33b84
ffffffff
fe55aa7a
ffffffff
0ea3fd41
00000000
1614f62a
00000000
fcc88d53
ffffffff
e935809d
ffffffff
11b749c0
00000000
06f4c6d4
00000000
1cb76a94
00000000
