f2fb0c19
010320fb
03250706
19f5f4ff
f2f0ff09
f71d2b3f
05010ff8
fc0a1e11
11090305
fc00fe00
0bf4fd03
d1c0d301
ee0bfafa
0b201df6
0c07f701
faf60008
f7e50f06
023707f9
050f02fc
fff50a07
e4fd0cfa
010905f7
fcf407f4
c9f3cef5
ede20e03
000033cc
00000000
00010fde
00000000
0000a4b0
00000000
00005eb2
00000000
02578994
00000000
1b076798
00000000
f0582bf2
ffffffff
0ebebeb8
00000000
