10fa160b
30230619
e2dafb12
27fef607
edde2a15
eee8f1e7
1d26141b
08191014
fb360210
fe12f8f3
17e13b1d
22ffe711
0f270bd0
14dcf4f4
092705da
13e3f9f2
11061c21
eb27e006
f6f2e3e9
eedaf205
00eefae1
23051302
dc0d1a40
0ee21c0d
f612102b
e4f117e2
150bf72f
1ddffef0
ef190304
1d1d11c1
e61436f9
1dde03f9
f233f1ef
1a10f21a
eb102310
fbc8f7f8
0001206a
00000000
0000d7ea
00000000
0000b2fc
00000000
0000c05a
00000000
000066a2
00000000
00016de6
00000000
0000b98e
00000000
00014436
00000000
000080b0
00000000
0000ff90
00000000
0000a150
00000000
0000d328
00000000
00015f2c
00000000
0000b214
00000000
0001d000
00000000
0000b044
00000000
f8eac92a
ffffffff
ffe143b6
ffffffff
01c72efc
00000000
f11b15c2
ffffffff
0287838c
00000000
fb2d4e94
ffffffff
02f2bb24
00000000
f72847ca
ffffffff
09eaa770
00000000
f0b52f5a
ffffffff
fc1852ee
ffffffff
fdd74f44
ffffffff
05d53210
00000000
facb0622
ffffffff
f59d2d00
ffffffff
02f4c60c
00000000
