e1e4e2f3
dcf8dccb
1d2816f5
da0c0c04
3113d3cc
182c1a1e
f709170e
bde9e2d2
f6e3efe5
2d0c2316
1c141b39
f71f3c10
fad7f929
1c0adaf2
21372813
e5181b1e
d5dae0ce
fbe6e7e6
00008665
00000000
0000dd7c
00000000
000071e3
00000000
00011800
00000000
00009c8b
00000000
00009b50
00000000
00007b98
00000000
000066d0
00000000
1a585bbe
00000000
ffdbf16f
ffffffff
fde609d6
ffffffff
2fd65590
00000000
f6eeca00
ffffffff
0cd3e80a
00000000
fffeef85
ffffffff
244eacfe
00000000
