192ceadb
0a04bcf4
e607c215
f00ebbe3
f92508c2
d4251b06
1add38f5
3ae4f608
000063e7
00000000
00003d7d
00000000
00004728
00000000
00006a38
00000000
0000a6ce
00000000
0000aeed
00000000
0000abb4
00000000
000107df
00000000
03d8b931
00000000
08b9d8bc
00000000
089dd96b
00000000
09e356ce
00000000
ff9f4390
ffffffff
fc4ac20f
ffffffff
f70bfa15
ffffffff
03458f4f
00000000
