04062112
2116022c
bd050924
fd120ef7
d0f62eef
09fbf917
24e13815
09ee2129
e8d8f904
f402c30a
06fefa38
f709ed00
3cf3fff1
08eb1834
fe06fae5
ca3c1a31
0203e506
e716f6de
00007644
00000000
0001d000
00000000
0001bda6
00000000
00010bcc
00000000
00011fbc
00000000
0000a1fe
00000000
0000c29e
00000000
00005ce4
00000000
fecf0120
ffffffff
00d0ab22
00000000
ff0d3ed0
ffffffff
fd68add2
ffffffff
00233e2c
00000000
fd4039e0
ffffffff
fe204a4a
ffffffff
0755dabc
00000000
